{
  "type": "BPETokenizer",
  "token2id": {
    "<UNK>": 0,
    "\n": 1,
    "!": 2,
    "$": 3,
    "&": 4,
    "'": 5,
    "'d</w>": 6,
    "'ll</w>": 7,
    "'s</w>": 8,
    "'st</w>": 9,
    "'t</w>": 10,
    ",": 11,
    "-": 12,
    ".": 13,
    "3": 14,
    ":": 15,
    ";": 16,
    "</w>": 17,
    "?": 18,
    "A": 19,
    "A</w>": 20,
    "AB": 21,
    "AD": 22,
    "AN": 23,
    "AND</w>": 24,
    "ANGELO</w>": 25,
    "AR": 26,
    "AR</w>": 27,
    "ARINA</w>": 28,
    "ATH": 29,
    "AU": 30,
    "AUTOLYCUS</w>": 31,
    "Ah</w>": 32,
    "Al": 33,
    "All</w>": 34,
    "And</w>": 35,
    "Ang": 36,
    "Angel": 37,
    "Angelo</w>": 38,
    "Are</w>": 39,
    "As</w>": 40,
    "At</w>": 41,
    "Au": 42,
    "Ay</w>": 43,
    "B": 44,
    "BA": 45,
    "BAPTISTA</w>": 46,
    "BENVOLIO</w>": 47,
    "BER": 48,
    "BOLINGBROKE</w>": 49,
    "BR": 50,
    "BRUTUS</w>": 51,
    "BUCKINGHAM</w>": 52,
    "BY</w>": 53,
    "Be": 54,
    "Be</w>": 55,
    "Before</w>": 56,
    "Bo": 57,
    "But</w>": 58,
    "By</w>": 59,
    "C": 60,
    "CA": 61,
    "CAMILLO</w>": 62,
    "CAPULET</w>": 63,
    "CL": 64,
    "CLARENCE</w>": 65,
    "CLI": 66,
    "COMINIUS</w>": 67,
    "CORIOLANUS</w>": 68,
    "CU": 69,
    "Ca": 70,
    "Citiz": 71,
    "Citizen</w>": 72,
    "Cl": 73,
    "Clar": 74,
    "Clarence</w>": 75,
    "Clown</w>": 76,
    "Co": 77,
    "Come</w>": 78,
    "Con": 79,
    "D": 80,
    "D</w>": 81,
    "DUCHESS</w>": 82,
    "DUKE</w>": 83,
    "Did</w>": 84,
    "Do</w>": 85,
    "Du": 86,
    "Duke</w>": 87,
    "E": 88,
    "E</w>": 89,
    "EDWARD</w>": 90,
    "EEN</w>": 91,
    "EL": 92,
    "EL</w>": 93,
    "ELIZABETH</w>": 94,
    "ELL": 95,
    "EN": 96,
    "EN</w>": 97,
    "ER": 98,
    "ER</w>": 99,
    "ES": 100,
    "ES</w>": 101,
    "ESCALUS</w>": 102,
    "ESS</w>": 103,
    "EST": 104,
    "ET": 105,
    "ET</w>": 106,
    "EY</w>": 107,
    "Ed": 108,
    "Edward</w>": 109,
    "Eng": 110,
    "Even</w>": 111,
    "F": 112,
    "F</w>": 113,
    "FRIAR</w>": 114,
    "First</w>": 115,
    "For</w>": 116,
    "From</w>": 117,
    "G": 118,
    "GAR": 119,
    "GLOUCESTER</w>": 120,
    "GON": 121,
    "GR": 122,
    "GRE": 123,
    "GREMIO</w>": 124,
    "GRUMIO</w>": 125,
    "Gent": 126,
    "Gentle": 127,
    "Give</w>": 128,
    "Go": 129,
    "Go</w>": 130,
    "God</w>": 131,
    "Good</w>": 132,
    "Gre": 133,
    "H": 134,
    "H</w>": 135,
    "HAM</w>": 136,
    "HASTINGS</w>": 137,
    "HENRY</w>": 138,
    "HOR": 139,
    "HORTENS": 140,
    "HORTENSIO</w>": 141,
    "Ha": 142,
    "Has</w>": 143,
    "Have</w>": 144,
    "He</w>": 145,
    "Hen": 146,
    "Henry</w>": 147,
    "Here</w>": 148,
    "His</w>": 149,
    "How</w>": 150,
    "I": 151,
    "I'll</w>": 152,
    "I</w>": 153,
    "IA</w>": 154,
    "IAN": 155,
    "ICH": 156,
    "II</w>": 157,
    "III</w>": 158,
    "IN": 159,
    "INC": 160,
    "ING": 161,
    "IO</w>": 162,
    "IS": 163,
    "ISABELLA</w>": 164,
    "IUS</w>": 165,
    "IV": 166,
    "IV</w>": 167,
    "If</w>": 168,
    "In": 169,
    "In</w>": 170,
    "Is</w>": 171,
    "It</w>": 172,
    "J": 173,
    "JULIET</w>": 174,
    "Ju": 175,
    "K": 176,
    "K</w>": 177,
    "KATHARINA</w>": 178,
    "KING</w>": 179,
    "Kate</w>": 180,
    "King</w>": 181,
    "L": 182,
    "LADY</w>": 183,
    "LAND</w>": 184,
    "LAURENCE</w>": 185,
    "LE": 186,
    "LEONTES</w>": 187,
    "LI": 188,
    "LO": 189,
    "LO</w>": 190,
    "LUCENTIO</w>": 191,
    "LUCIO</w>": 192,
    "La": 193,
    "Le": 194,
    "Let</w>": 195,
    "Li": 196,
    "Look</w>": 197,
    "Lord</w>": 198,
    "Lu": 199,
    "M": 200,
    "MAR": 201,
    "MARGARET</w>": 202,
    "ME": 203,
    "MEN": 204,
    "MENENIUS</w>": 205,
    "MER": 206,
    "MERCUTIO</w>": 207,
    "MI": 208,
    "MIL": 209,
    "Ma": 210,
    "Mar": 211,
    "Marci": 212,
    "Marcius</w>": 213,
    "More</w>": 214,
    "Mu": 215,
    "Murderer</w>": 216,
    "My</w>": 217,
    "N": 218,
    "NOR": 219,
    "No": 220,
    "No</w>": 221,
    "Nor": 222,
    "Nor</w>": 223,
    "Not</w>": 224,
    "Now</w>": 225,
    "Nurse</w>": 226,
    "O": 227,
    "O</w>": 228,
    "OF</w>": 229,
    "OL": 230,
    "OM": 231,
    "ON": 232,
    "ONT": 233,
    "OR": 234,
    "ORD</w>": 235,
    "ORI": 236,
    "Of</w>": 237,
    "On": 238,
    "On</w>": 239,
    "Or</w>": 240,
    "Our</w>": 241,
    "P": 242,
    "PAULINA</w>": 243,
    "PER": 244,
    "PET": 245,
    "PETRUCHIO</w>": 246,
    "POLIXENES</w>": 247,
    "POMP": 248,
    "POMPEY</w>": 249,
    "PROSPERO</w>": 250,
    "Par": 251,
    "Pe": 252,
    "Po": 253,
    "Pro": 254,
    "Provost</w>": 255,
    "Q": 256,
    "QUEEN</w>": 257,
    "R": 258,
    "RAN": 259,
    "RI": 260,
    "RICH": 261,
    "RICHARD</w>": 262,
    "RO": 263,
    "ROMEO</w>": 264,
    "ROS": 265,
    "RY</w>": 266,
    "Re": 267,
    "Ri": 268,
    "Richar": 269,
    "Richard</w>": 270,
    "Ro": 271,
    "Rome": 272,
    "Rome</w>": 273,
    "Romeo</w>": 274,
    "S": 275,
    "S</w>": 276,
    "SICINIUS</w>": 277,
    "ST": 278,
    "Sa": 279,
    "Say</w>": 280,
    "Se": 281,
    "Second</w>": 282,
    "Serv": 283,
    "Servant</w>": 284,
    "Servingman</w>": 285,
    "Sh": 286,
    "Sha": 287,
    "Shall</w>": 288,
    "She</w>": 289,
    "Sir</w>": 290,
    "So</w>": 291,
    "St": 292,
    "Su": 293,
    "T": 294,
    "T</w>": 295,
    "TH": 296,
    "TI": 297,
    "TRANIO</w>": 298,
    "Take</w>": 299,
    "Th": 300,
    "Tha": 301,
    "Than</w>": 302,
    "That</w>": 303,
    "The</w>": 304,
    "Then</w>": 305,
    "There</w>": 306,
    "Therefore</w>": 307,
    "They</w>": 308,
    "Thi": 309,
    "Third</w>": 310,
    "This</w>": 311,
    "To</w>": 312,
    "Ty": 313,
    "Tybal": 314,
    "U": 315,
    "UM": 316,
    "US</w>": 317,
    "UT": 318,
    "Un": 319,
    "Upon</w>": 320,
    "V": 321,
    "VI</w>": 322,
    "VINCENTIO</w>": 323,
    "VOLUMNIA</w>": 324,
    "W": 325,
    "WARWICK</w>": 326,
    "War": 327,
    "Warwi": 328,
    "Warwick</w>": 329,
    "Was</w>": 330,
    "We</w>": 331,
    "Well</w>": 332,
    "Were</w>": 333,
    "Wh": 334,
    "What</w>": 335,
    "When</w>": 336,
    "Where</w>": 337,
    "Whi": 338,
    "Which</w>": 339,
    "Who</w>": 340,
    "Why</w>": 341,
    "Wi": 342,
    "Will</w>": 343,
    "With</w>": 344,
    "Would</w>": 345,
    "X": 346,
    "Y": 347,
    "Y</w>": 348,
    "YORK</w>": 349,
    "Yet</w>": 350,
    "Yor": 351,
    "York</w>": 352,
    "You": 353,
    "You</w>": 354,
    "Your</w>": 355,
    "Z": 356,
    "a": 357,
    "a</w>": 358,
    "ab": 359,
    "able</w>": 360,
    "about</w>": 361,
    "ac": 362,
    "ad": 363,
    "af": 364,
    "after</w>": 365,
    "aga": 366,
    "again</w>": 367,
    "against</w>": 368,
    "age</w>": 369,
    "ake</w>": 370,
    "al": 371,
    "al</w>": 372,
    "all</w>": 373,
    "am</w>": 374,
    "an": 375,
    "an</w>": 376,
    "ance</w>": 377,
    "and</w>": 378,
    "ands</w>": 379,
    "ang": 380,
    "another</w>": 381,
    "ans</w>": 382,
    "answ": 383,
    "answer</w>": 384,
    "ant</w>": 385,
    "any</w>": 386,
    "ap": 387,
    "app": 388,
    "ar": 389,
    "ar</w>": 390,
    "ard</w>": 391,
    "are": 392,
    "are</w>": 393,
    "arewell</w>": 394,
    "ark</w>": 395,
    "arms</w>": 396,
    "as": 397,
    "as</w>": 398,
    "at": 399,
    "at</w>": 400,
    "ate</w>": 401,
    "au": 402,
    "away</w>": 403,
    "ay</w>": 404,
    "b": 405,
    "ba": 406,
    "back</w>": 407,
    "bal": 408,
    "ban": 409,
    "banish": 410,
    "be": 411,
    "be</w>": 412,
    "bea": 413,
    "bear</w>": 414,
    "beau": 415,
    "bed</w>": 416,
    "been</w>": 417,
    "before</w>": 418,
    "beg": 419,
    "being</w>": 420,
    "bel": 421,
    "bes": 422,
    "beseech</w>": 423,
    "best</w>": 424,
    "better</w>": 425,
    "between</w>": 426,
    "bi": 427,
    "bid</w>": 428,
    "bl": 429,
    "ble</w>": 430,
    "bloo": 431,
    "blood</w>": 432,
    "bloody</w>": 433,
    "bo": 434,
    "body</w>": 435,
    "bor": 436,
    "born</w>": 437,
    "both</w>": 438,
    "boy</w>": 439,
    "br": 440,
    "bra": 441,
    "brea": 442,
    "breath</w>": 443,
    "bri": 444,
    "bring</w>": 445,
    "bro": 446,
    "broke</w>": 447,
    "brother</w>": 448,
    "bu": 449,
    "bur": 450,
    "bus": 451,
    "business</w>": 452,
    "but</w>": 453,
    "by</w>": 454,
    "c": 455,
    "c</w>": 456,
    "ca": 457,
    "call</w>": 458,
    "came</w>": 459,
    "can": 460,
    "can</w>": 461,
    "cannot</w>": 462,
    "car": 463,
    "cause</w>": 464,
    "ce": 465,
    "ce</w>": 466,
    "ced</w>": 467,
    "cei": 468,
    "cen": 469,
    "ces": 470,
    "ces</w>": 471,
    "ch": 472,
    "ch'd</w>": 473,
    "ch</w>": 474,
    "cha": 475,
    "chan": 476,
    "char": 477,
    "ches</w>": 478,
    "chi": 479,
    "chil": 480,
    "child</w>": 481,
    "childr": 482,
    "ci": 483,
    "cious</w>": 484,
    "city</w>": 485,
    "ck": 486,
    "ck'd</w>": 487,
    "ck</w>": 488,
    "cks</w>": 489,
    "cla": 490,
    "clo": 491,
    "co": 492,
    "com": 493,
    "come</w>": 494,
    "comes</w>": 495,
    "comfor": 496,
    "comfort</w>": 497,
    "comm": 498,
    "comp": 499,
    "con": 500,
    "cond</w>": 501,
    "conf": 502,
    "cont": 503,
    "cor": 504,
    "cou": 505,
    "could</w>": 506,
    "coun": 507,
    "count": 508,
    "cour": 509,
    "cousin</w>": 510,
    "cr": 511,
    "cra": 512,
    "cre": 513,
    "crown</w>": 514,
    "ct</w>": 515,
    "ction</w>": 516,
    "cu": 517,
    "cur": 518,
    "cy</w>": 519,
    "d": 520,
    "d's</w>": 521,
    "d</w>": 522,
    "da": 523,
    "dam</w>": 524,
    "dang": 525,
    "dar": 526,
    "daugh": 527,
    "daughter</w>": 528,
    "day</w>": 529,
    "days</w>": 530,
    "de": 531,
    "de</w>": 532,
    "dea": 533,
    "dead</w>": 534,
    "dear</w>": 535,
    "death</w>": 536,
    "ded</w>": 537,
    "deed</w>": 538,
    "deli": 539,
    "den": 540,
    "den</w>": 541,
    "der": 542,
    "der</w>": 543,
    "ders</w>": 544,
    "des": 545,
    "des</w>": 546,
    "deser": 547,
    "dev": 548,
    "dge</w>": 549,
    "di": 550,
    "did</w>": 551,
    "die</w>": 552,
    "dies</w>": 553,
    "ding</w>": 554,
    "dis": 555,
    "disp": 556,
    "dle</w>": 557,
    "dly</w>": 558,
    "dness</w>": 559,
    "do": 560,
    "do</w>": 561,
    "does</w>": 562,
    "dom</w>": 563,
    "don</w>": 564,
    "done</w>": 565,
    "dou": 566,
    "doub": 567,
    "doubt</w>": 568,
    "dow</w>": 569,
    "down</w>": 570,
    "dr": 571,
    "dra": 572,
    "drea": 573,
    "ds</w>": 574,
    "du": 575,
    "duke</w>": 576,
    "dy</w>": 577,
    "e": 578,
    "e's</w>": 579,
    "e</w>": 580,
    "ea": 581,
    "eace</w>": 582,
    "each</w>": 583,
    "eak</w>": 584,
    "ear": 585,
    "ear</w>": 586,
    "ears</w>": 587,
    "earth</w>": 588,
    "ec": 589,
    "ect</w>": 590,
    "ed</w>": 591,
    "ee": 592,
    "eech</w>": 593,
    "eeds</w>": 594,
    "eel</w>": 595,
    "een</w>": 596,
    "eep": 597,
    "eep</w>": 598,
    "eet</w>": 599,
    "ef</w>": 600,
    "el": 601,
    "el</w>": 602,
    "elcome</w>": 603,
    "eld</w>": 604,
    "ell": 605,
    "ell</w>": 606,
    "else</w>": 607,
    "ely</w>": 608,
    "en": 609,
    "en</w>": 610,
    "ence</w>": 611,
    "end</w>": 612,
    "ends</w>": 613,
    "ene": 614,
    "eng": 615,
    "enough</w>": 616,
    "ens</w>": 617,
    "ent": 618,
    "ent</w>": 619,
    "er": 620,
    "er'd</w>": 621,
    "er's</w>": 622,
    "er</w>": 623,
    "eral</w>": 624,
    "ere": 625,
    "ere's</w>": 626,
    "ere</w>": 627,
    "erefore</w>": 628,
    "ering</w>": 629,
    "erous</w>": 630,
    "ers</w>": 631,
    "erv": 632,
    "ery</w>": 633,
    "es": 634,
    "es</w>": 635,
    "ese</w>": 636,
    "ess</w>": 637,
    "essen": 638,
    "essenger</w>": 639,
    "est</w>": 640,
    "esty</w>": 641,
    "et</w>": 642,
    "ev": 643,
    "even</w>": 644,
    "ever</w>": 645,
    "every</w>": 646,
    "ex": 647,
    "ey": 648,
    "ey</w>": 649,
    "eye</w>": 650,
    "eyes</w>": 651,
    "f": 652,
    "f</w>": 653,
    "fa": 654,
    "face</w>": 655,
    "fair</w>": 656,
    "fal": 657,
    "fall</w>": 658,
    "false</w>": 659,
    "far</w>": 660,
    "father's</w>": 661,
    "father</w>": 662,
    "fau": 663,
    "fe": 664,
    "fe</w>": 665,
    "fear": 666,
    "fear</w>": 667,
    "fec": 668,
    "fell": 669,
    "fellow</w>": 670,
    "ff": 671,
    "fi": 672,
    "fight</w>": 673,
    "find</w>": 674,
    "fire</w>": 675,
    "first</w>": 676,
    "fit</w>": 677,
    "fl": 678,
    "fla": 679,
    "fly</w>": 680,
    "fo": 681,
    "fol": 682,
    "follow</w>": 683,
    "foo": 684,
    "for": 685,
    "for</w>": 686,
    "ford</w>": 687,
    "fore</w>": 688,
    "forth</w>": 689,
    "fortune</w>": 690,
    "fou": 691,
    "foul</w>": 692,
    "found</w>": 693,
    "fri": 694,
    "friend</w>": 695,
    "friends</w>": 696,
    "from</w>": 697,
    "ft</w>": 698,
    "fu": 699,
    "ful</w>": 700,
    "full</w>": 701,
    "fur": 702,
    "g": 703,
    "g</w>": 704,
    "ga": 705,
    "gainst</w>": 706,
    "gar": 707,
    "ge": 708,
    "ge</w>": 709,
    "ged</w>": 710,
    "gen": 711,
    "gent": 712,
    "gentle": 713,
    "gentle</w>": 714,
    "gentleman</w>": 715,
    "ger</w>": 716,
    "ges</w>": 717,
    "get</w>": 718,
    "gether</w>": 719,
    "gh": 720,
    "gh</w>": 721,
    "ght</w>": 722,
    "ghts</w>": 723,
    "gi": 724,
    "give</w>": 725,
    "go": 726,
    "go</w>": 727,
    "gods</w>": 728,
    "gone</w>": 729,
    "goo": 730,
    "good</w>": 731,
    "got</w>": 732,
    "gr": 733,
    "gra": 734,
    "grace</w>": 735,
    "gracious</w>": 736,
    "grave</w>": 737,
    "gre": 738,
    "grea": 739,
    "great</w>": 740,
    "gri": 741,
    "grief</w>": 742,
    "gro": 743,
    "gs</w>": 744,
    "gu": 745,
    "gue</w>": 746,
    "h": 747,
    "h</w>": 748,
    "ha": 749,
    "had</w>": 750,
    "hand</w>": 751,
    "hands</w>": 752,
    "happ": 753,
    "happy</w>": 754,
    "har": 755,
    "has</w>": 756,
    "hat's</w>": 757,
    "hat</w>": 758,
    "hate</w>": 759,
    "have</w>": 760,
    "he": 761,
    "he's</w>": 762,
    "he</w>": 763,
    "hea": 764,
    "head</w>": 765,
    "hear": 766,
    "hear</w>": 767,
    "heard</w>": 768,
    "heart</w>": 769,
    "heaven</w>": 770,
    "hel": 771,
    "help</w>": 772,
    "hence</w>": 773,
    "her": 774,
    "her</w>": 775,
    "here</w>": 776,
    "hi": 777,
    "high": 778,
    "high</w>": 779,
    "him</w>": 780,
    "himself</w>": 781,
    "his</w>": 782,
    "hither</w>": 783,
    "ho": 784,
    "hol": 785,
    "hold</w>": 786,
    "holy</w>": 787,
    "home</w>": 788,
    "hon": 789,
    "honour</w>": 790,
    "hope</w>": 791,
    "hor": 792,
    "horse</w>": 793,
    "hou": 794,
    "hour</w>": 795,
    "house</w>": 796,
    "how</w>": 797,
    "hu": 798,
    "hus": 799,
    "husb": 800,
    "husband</w>": 801,
    "i": 802,
    "i</w>": 803,
    "id</w>": 804,
    "if</w>": 805,
    "ig": 806,
    "ight</w>": 807,
    "ign</w>": 808,
    "il": 809,
    "il</w>": 810,
    "ill</w>": 811,
    "im": 812,
    "imp": 813,
    "in": 814,
    "in'd</w>": 815,
    "in</w>": 816,
    "inc": 817,
    "ince</w>": 818,
    "ind</w>": 819,
    "indeed</w>": 820,
    "ine</w>": 821,
    "iness</w>": 822,
    "ing": 823,
    "ing</w>": 824,
    "ings</w>": 825,
    "ink</w>": 826,
    "ins</w>": 827,
    "inst</w>": 828,
    "int</w>": 829,
    "inted</w>": 830,
    "into</w>": 831,
    "ir": 832,
    "ir</w>": 833,
    "ire</w>": 834,
    "irs</w>": 835,
    "irst</w>": 836,
    "is": 837,
    "is</w>": 838,
    "ise</w>": 839,
    "ish": 840,
    "ish</w>": 841,
    "it": 842,
    "it</w>": 843,
    "ith</w>": 844,
    "ither</w>": 845,
    "iti": 846,
    "ius</w>": 847,
    "ive</w>": 848,
    "j": 849,
    "jo": 850,
    "joy</w>": 851,
    "ju": 852,
    "justi": 853,
    "k": 854,
    "k'd</w>": 855,
    "k</w>": 856,
    "ke": 857,
    "ke</w>": 858,
    "ked</w>": 859,
    "keep</w>": 860,
    "ken</w>": 861,
    "kes</w>": 862,
    "kill</w>": 863,
    "kin": 864,
    "kind</w>": 865,
    "king": 866,
    "king</w>": 867,
    "kis": 868,
    "kn": 869,
    "know</w>": 870,
    "ks</w>": 871,
    "l": 872,
    "l</w>": 873,
    "la": 874,
    "lack</w>": 875,
    "lady</w>": 876,
    "lan": 877,
    "land</w>": 878,
    "last</w>": 879,
    "late</w>": 880,
    "lau": 881,
    "law</w>": 882,
    "lay</w>": 883,
    "ld</w>": 884,
    "le": 885,
    "le</w>": 886,
    "lea": 887,
    "lear": 888,
    "leave</w>": 889,
    "led</w>": 890,
    "left</w>": 891,
    "les</w>": 892,
    "less</w>": 893,
    "let's</w>": 894,
    "let</w>": 895,
    "lf</w>": 896,
    "li": 897,
    "lie": 898,
    "lie</w>": 899,
    "lies</w>": 900,
    "lieve</w>": 901,
    "lif": 902,
    "life</w>": 903,
    "light</w>": 904,
    "like</w>": 905,
    "lin": 906,
    "ling</w>": 907,
    "little</w>": 908,
    "live</w>": 909,
    "lives</w>": 910,
    "ll": 911,
    "ll'd</w>": 912,
    "ll</w>": 913,
    "lla": 914,
    "lls</w>": 915,
    "lo": 916,
    "long</w>": 917,
    "loo": 918,
    "look</w>": 919,
    "looks</w>": 920,
    "lor": 921,
    "lord</w>": 922,
    "lords</w>": 923,
    "lou": 924,
    "love</w>": 925,
    "low</w>": 926,
    "ls</w>": 927,
    "lt</w>": 928,
    "lu": 929,
    "ly</w>": 930,
    "m": 931,
    "m'd</w>": 932,
    "m</w>": 933,
    "ma": 934,
    "madam</w>": 935,
    "made</w>": 936,
    "maid</w>": 937,
    "maj": 938,
    "majesty</w>": 939,
    "make</w>": 940,
    "makes</w>": 941,
    "man": 942,
    "man</w>": 943,
    "many</w>": 944,
    "mar": 945,
    "master</w>": 946,
    "matter</w>": 947,
    "may</w>": 948,
    "mb": 949,
    "mb</w>": 950,
    "mber</w>": 951,
    "me": 952,
    "me</w>": 953,
    "mea": 954,
    "mean</w>": 955,
    "means</w>": 956,
    "med</w>": 957,
    "meet</w>": 958,
    "men": 959,
    "men</w>": 960,
    "ment</w>": 961,
    "ments</w>": 962,
    "mer": 963,
    "mercy</w>": 964,
    "mes</w>": 965,
    "mi": 966,
    "might</w>": 967,
    "min": 968,
    "mind</w>": 969,
    "mine</w>": 970,
    "mis": 971,
    "mistress</w>": 972,
    "mo": 973,
    "mon": 974,
    "mor": 975,
    "more</w>": 976,
    "morrow</w>": 977,
    "most</w>": 978,
    "mother</w>": 979,
    "mp": 980,
    "ms</w>": 981,
    "mself</w>": 982,
    "mu": 983,
    "much</w>": 984,
    "must</w>": 985,
    "my</w>": 986,
    "myself</w>": 987,
    "n": 988,
    "n'd</w>": 989,
    "n</w>": 990,
    "na": 991,
    "name</w>": 992,
    "nat": 993,
    "nature</w>": 994,
    "nd</w>": 995,
    "ne": 996,
    "ned</w>": 997,
    "need</w>": 998,
    "ness</w>": 999,
    "never</w>": 1000,
    "new</w>": 1001,
    "news</w>": 1002,
    "ng": 1003,
    "ng</w>": 1004,
    "ni": 1005,
    "night</w>": 1006,
    "ning</w>": 1007,
    "no": 1008,
    "no</w>": 1009,
    "noble</w>": 1010,
    "none</w>": 1011,
    "nor</w>": 1012,
    "not</w>": 1013,
    "nothing</w>": 1014,
    "now</w>": 1015,
    "ns</w>": 1016,
    "o": 1017,
    "o's</w>": 1018,
    "o</w>": 1019,
    "oa": 1020,
    "of": 1021,
    "of</w>": 1022,
    "off": 1023,
    "off</w>": 1024,
    "offi": 1025,
    "often</w>": 1026,
    "ol": 1027,
    "old</w>": 1028,
    "om</w>": 1029,
    "ome</w>": 1030,
    "on": 1031,
    "on</w>": 1032,
    "once</w>": 1033,
    "ond</w>": 1034,
    "one</w>": 1035,
    "ones</w>": 1036,
    "ong</w>": 1037,
    "only</w>": 1038,
    "ons</w>": 1039,
    "oo": 1040,
    "ood</w>": 1041,
    "ook</w>": 1042,
    "op": 1043,
    "or": 1044,
    "or</w>": 1045,
    "ord</w>": 1046,
    "ore</w>": 1047,
    "ori": 1048,
    "ors</w>": 1049,
    "ort</w>": 1050,
    "ose</w>": 1051,
    "other</w>": 1052,
    "ou": 1053,
    "ough</w>": 1054,
    "ould</w>": 1055,
    "oun": 1056,
    "ound</w>": 1057,
    "our": 1058,
    "our</w>": 1059,
    "ours</w>": 1060,
    "ous</w>": 1061,
    "out</w>": 1062,
    "over</w>": 1063,
    "ow": 1064,
    "ow'd</w>": 1065,
    "ow</w>": 1066,
    "ower</w>": 1067,
    "own</w>": 1068,
    "ows</w>": 1069,
    "p": 1070,
    "p</w>": 1071,
    "pa": 1072,
    "par": 1073,
    "pardon</w>": 1074,
    "part</w>": 1075,
    "pati": 1076,
    "pe": 1077,
    "pe</w>": 1078,
    "peace</w>": 1079,
    "peop": 1080,
    "people</w>": 1081,
    "per": 1082,
    "pher": 1083,
    "pherd</w>": 1084,
    "pi": 1085,
    "pity</w>": 1086,
    "pla": 1087,
    "place</w>": 1088,
    "play</w>": 1089,
    "plea": 1090,
    "please</w>": 1091,
    "plu": 1092,
    "po": 1093,
    "pon</w>": 1094,
    "poor</w>": 1095,
    "pose</w>": 1096,
    "power</w>": 1097,
    "pp": 1098,
    "pr": 1099,
    "pra": 1100,
    "pray</w>": 1101,
    "pre": 1102,
    "pres": 1103,
    "present</w>": 1104,
    "pri": 1105,
    "prince</w>": 1106,
    "pro": 1107,
    "promi": 1108,
    "prou": 1109,
    "proud</w>": 1110,
    "prove</w>": 1111,
    "ps</w>": 1112,
    "pt</w>": 1113,
    "pu": 1114,
    "pur": 1115,
    "put</w>": 1116,
    "qu": 1117,
    "queen</w>": 1118,
    "qui": 1119,
    "r": 1120,
    "r</w>": 1121,
    "ra": 1122,
    "ran": 1123,
    "rance</w>": 1124,
    "rant</w>": 1125,
    "rather</w>": 1126,
    "ray</w>": 1127,
    "re": 1128,
    "re</w>": 1129,
    "rea": 1130,
    "read</w>": 1131,
    "ready</w>": 1132,
    "ree</w>": 1133,
    "reme": 1134,
    "rep": 1135,
    "res": 1136,
    "rest</w>": 1137,
    "reven": 1138,
    "ri": 1139,
    "ried</w>": 1140,
    "right</w>": 1141,
    "ro": 1142,
    "rou": 1143,
    "rough</w>": 1144,
    "rought</w>": 1145,
    "round</w>": 1146,
    "row</w>": 1147,
    "roy": 1148,
    "royal</w>": 1149,
    "rs</w>": 1150,
    "ru": 1151,
    "ry</w>": 1152,
    "s": 1153,
    "s</w>": 1154,
    "sa": 1155,
    "said</w>": 1156,
    "save</w>": 1157,
    "saw</w>": 1158,
    "say</w>": 1159,
    "sca": 1160,
    "se": 1161,
    "se</w>": 1162,
    "sea": 1163,
    "sea</w>": 1164,
    "sed</w>": 1165,
    "see": 1166,
    "see</w>": 1167,
    "seen</w>": 1168,
    "sel": 1169,
    "self</w>": 1170,
    "selves</w>": 1171,
    "sen": 1172,
    "send</w>": 1173,
    "sent</w>": 1174,
    "ser": 1175,
    "ses</w>": 1176,
    "set</w>": 1177,
    "sh": 1178,
    "sh</w>": 1179,
    "sha": 1180,
    "shall</w>": 1181,
    "shame</w>": 1182,
    "she</w>": 1183,
    "shi": 1184,
    "ship</w>": 1185,
    "should</w>": 1186,
    "show</w>": 1187,
    "si": 1188,
    "side</w>": 1189,
    "sil": 1190,
    "sin</w>": 1191,
    "since</w>": 1192,
    "sing</w>": 1193,
    "sion</w>": 1194,
    "sir</w>": 1195,
    "sit</w>": 1196,
    "sl": 1197,
    "sla": 1198,
    "sleep</w>": 1199,
    "so": 1200,
    "so</w>": 1201,
    "sol": 1202,
    "soldi": 1203,
    "some": 1204,
    "some</w>": 1205,
    "son": 1206,
    "son</w>": 1207,
    "sons</w>": 1208,
    "sor": 1209,
    "sorrow</w>": 1210,
    "sou": 1211,
    "soul</w>": 1212,
    "sovere": 1213,
    "sp": 1214,
    "speak</w>": 1215,
    "spi": 1216,
    "spir": 1217,
    "spo": 1218,
    "ss": 1219,
    "ss</w>": 1220,
    "st": 1221,
    "st</w>": 1222,
    "sta": 1223,
    "stand</w>": 1224,
    "state</w>": 1225,
    "stay</w>": 1226,
    "ste</w>": 1227,
    "ster</w>": 1228,
    "sti": 1229,
    "still</w>": 1230,
    "sto": 1231,
    "str": 1232,
    "stra": 1233,
    "stran": 1234,
    "stress</w>": 1235,
    "stri": 1236,
    "stru": 1237,
    "stu": 1238,
    "su": 1239,
    "sub": 1240,
    "subj": 1241,
    "such</w>": 1242,
    "sun</w>": 1243,
    "sur": 1244,
    "sure</w>": 1245,
    "sw": 1246,
    "swear</w>": 1247,
    "sweet</w>": 1248,
    "sword</w>": 1249,
    "t": 1250,
    "t's</w>": 1251,
    "t</w>": 1252,
    "ta": 1253,
    "tain</w>": 1254,
    "take</w>": 1255,
    "tal": 1256,
    "tal</w>": 1257,
    "talk</w>": 1258,
    "tch": 1259,
    "tch</w>": 1260,
    "te": 1261,
    "te</w>": 1262,
    "tears</w>": 1263,
    "ted</w>": 1264,
    "tell</w>": 1265,
    "temp": 1266,
    "ten": 1267,
    "ten</w>": 1268,
    "ter": 1269,
    "ter</w>": 1270,
    "tes</w>": 1271,
    "th": 1272,
    "th</w>": 1273,
    "than": 1274,
    "than</w>": 1275,
    "thank</w>": 1276,
    "that's</w>": 1277,
    "that</w>": 1278,
    "the": 1279,
    "the</w>": 1280,
    "their</w>": 1281,
    "them</w>": 1282,
    "then</w>": 1283,
    "ther's</w>": 1284,
    "ther</w>": 1285,
    "there": 1286,
    "there</w>": 1287,
    "therefore</w>": 1288,
    "thers</w>": 1289,
    "these</w>": 1290,
    "they</w>": 1291,
    "thin": 1292,
    "thing</w>": 1293,
    "things</w>": 1294,
    "think</w>": 1295,
    "thinks</w>": 1296,
    "this</w>": 1297,
    "those</w>": 1298,
    "thou": 1299,
    "though</w>": 1300,
    "thought</w>": 1301,
    "thous": 1302,
    "thousand</w>": 1303,
    "three</w>": 1304,
    "thus</w>": 1305,
    "thy</w>": 1306,
    "ti": 1307,
    "ties</w>": 1308,
    "till</w>": 1309,
    "time</w>": 1310,
    "times</w>": 1311,
    "ting</w>": 1312,
    "tio</w>": 1313,
    "tion</w>": 1314,
    "tions</w>": 1315,
    "tle</w>": 1316,
    "tly</w>": 1317,
    "tness</w>": 1318,
    "to": 1319,
    "to</w>": 1320,
    "together</w>": 1321,
    "told</w>": 1322,
    "ton": 1323,
    "tongue</w>": 1324,
    "too</w>": 1325,
    "tor": 1326,
    "tou": 1327,
    "tow": 1328,
    "tra": 1329,
    "trait": 1330,
    "tre": 1331,
    "trea": 1332,
    "tri": 1333,
    "tru": 1334,
    "true</w>": 1335,
    "truth</w>": 1336,
    "ts</w>": 1337,
    "tt": 1338,
    "tter</w>": 1339,
    "ttle</w>": 1340,
    "tu": 1341,
    "tun": 1342,
    "tune</w>": 1343,
    "tur": 1344,
    "ture</w>": 1345,
    "turn</w>": 1346,
    "tw": 1347,
    "tween</w>": 1348,
    "two</w>": 1349,
    "ty</w>": 1350,
    "u": 1351,
    "ugh": 1352,
    "un": 1353,
    "unc": 1354,
    "under</w>": 1355,
    "unt</w>": 1356,
    "up": 1357,
    "up</w>": 1358,
    "upon</w>": 1359,
    "ur": 1360,
    "ur</w>": 1361,
    "urder": 1362,
    "urderer</w>": 1363,
    "ure</w>": 1364,
    "urse</w>": 1365,
    "us": 1366,
    "us</w>": 1367,
    "use</w>": 1368,
    "ut</w>": 1369,
    "v": 1370,
    "va": 1371,
    "van": 1372,
    "ve</w>": 1373,
    "ved</w>": 1374,
    "ven": 1375,
    "ven</w>": 1376,
    "ver": 1377,
    "ver</w>": 1378,
    "vere": 1379,
    "very</w>": 1380,
    "ves</w>": 1381,
    "vi": 1382,
    "vice</w>": 1383,
    "villa": 1384,
    "villain</w>": 1385,
    "ving</w>": 1386,
    "vir": 1387,
    "virtu": 1388,
    "vo": 1389,
    "voi": 1390,
    "vost</w>": 1391,
    "vy</w>": 1392,
    "w": 1393,
    "w</w>": 1394,
    "wa": 1395,
    "wan": 1396,
    "war": 1397,
    "war</w>": 1398,
    "ward</w>": 1399,
    "was</w>": 1400,
    "wat": 1401,
    "way</w>": 1402,
    "we": 1403,
    "we</w>": 1404,
    "wea": 1405,
    "welcome</w>": 1406,
    "well</w>": 1407,
    "were</w>": 1408,
    "wh": 1409,
    "what</w>": 1410,
    "when</w>": 1411,
    "where</w>": 1412,
    "whi": 1413,
    "which</w>": 1414,
    "while</w>": 1415,
    "who</w>": 1416,
    "whom</w>": 1417,
    "whose</w>": 1418,
    "why</w>": 1419,
    "wi": 1420,
    "wife</w>": 1421,
    "will</w>": 1422,
    "wilt</w>": 1423,
    "win": 1424,
    "wish</w>": 1425,
    "with": 1426,
    "with</w>": 1427,
    "within</w>": 1428,
    "wo": 1429,
    "woman</w>": 1430,
    "won": 1431,
    "wor": 1432,
    "word</w>": 1433,
    "words</w>": 1434,
    "world</w>": 1435,
    "worn</w>": 1436,
    "would</w>": 1437,
    "wr": 1438,
    "wre": 1439,
    "ws</w>": 1440,
    "x": 1441,
    "x</w>": 1442,
    "y": 1443,
    "y's</w>": 1444,
    "y</w>": 1445,
    "years</w>": 1446,
    "yet</w>": 1447,
    "yi": 1448,
    "ying</w>": 1449,
    "you": 1450,
    "you</w>": 1451,
    "young</w>": 1452,
    "your": 1453,
    "your</w>": 1454,
    "yours</w>": 1455,
    "yourself</w>": 1456,
    "ys</w>": 1457,
    "yself</w>": 1458,
    "z": 1459,
    "ze</w>": 1460
  },
  "num_merges": 1500,
  "min_pair_freq": 2,
  "merges": [
    [
      "e",
      "</w>"
    ],
    [
      "s",
      "</w>"
    ],
    [
      "t",
      "</w>"
    ],
    [
      "d",
      "</w>"
    ],
    [
      "t",
      "h"
    ],
    [
      "r",
      "</w>"
    ],
    [
      "o",
      "u"
    ],
    [
      "n",
      "</w>"
    ],
    [
      "y",
      "</w>"
    ],
    [
      "o",
      "</w>"
    ],
    [
      "a",
      "n"
    ],
    [
      "y",
      "ou"
    ],
    [
      "i",
      "n"
    ],
    [
      "l",
      "</w>"
    ],
    [
      "h",
      "a"
    ],
    [
      "e",
      "r"
    ],
    [
      "e",
      "a"
    ],
    [
      "o",
      "r"
    ],
    [
      "th",
      "e</w>"
    ],
    [
      "e",
      "r</w>"
    ],
    [
      "f",
      "</w>"
    ],
    [
      "l",
      "l</w>"
    ],
    [
      "i",
      "s</w>"
    ],
    [
      "I",
      "</w>"
    ],
    [
      "you",
      "</w>"
    ],
    [
      "e",
      "n"
    ],
    [
      "an",
      "d</w>"
    ],
    [
      "t",
      "o</w>"
    ],
    [
      "a",
      "r"
    ],
    [
      "o",
      "w"
    ],
    [
      "m",
      "e</w>"
    ],
    [
      "o",
      "n"
    ],
    [
      "m",
      "</w>"
    ],
    [
      "w",
      "i"
    ],
    [
      "in",
      "g"
    ],
    [
      "e",
      "s"
    ],
    [
      "v",
      "e</w>"
    ],
    [
      "o",
      "f</w>"
    ],
    [
      "th",
      "</w>"
    ],
    [
      "i",
      "n</w>"
    ],
    [
      "e",
      "d</w>"
    ],
    [
      "e",
      "s</w>"
    ],
    [
      "o",
      "r</w>"
    ],
    [
      "ing",
      "</w>"
    ],
    [
      "a",
      "</w>"
    ],
    [
      "h",
      "i"
    ],
    [
      "e",
      "n</w>"
    ],
    [
      "s",
      "t"
    ],
    [
      "m",
      "y</w>"
    ],
    [
      "n",
      "o"
    ],
    [
      "m",
      "a"
    ],
    [
      "h",
      "</w>"
    ],
    [
      "o",
      "n</w>"
    ],
    [
      "h",
      "e</w>"
    ],
    [
      "a",
      "t</w>"
    ],
    [
      "you",
      "r</w>"
    ],
    [
      "l",
      "i"
    ],
    [
      "i",
      "t</w>"
    ],
    [
      "ow",
      "</w>"
    ],
    [
      "k",
      "</w>"
    ],
    [
      "c",
      "e</w>"
    ],
    [
      "r",
      "o"
    ],
    [
      "s",
      "t</w>"
    ],
    [
      "n",
      "d</w>"
    ],
    [
      "no",
      "t</w>"
    ],
    [
      "O",
      "</w>"
    ],
    [
      "t",
      "i"
    ],
    [
      "e",
      "l"
    ],
    [
      "s",
      "e</w>"
    ],
    [
      "r",
      "i"
    ],
    [
      "th",
      "at</w>"
    ],
    [
      "A",
      "nd</w>"
    ],
    [
      "l",
      "d</w>"
    ],
    [
      "o",
      "o"
    ],
    [
      "r",
      "e"
    ],
    [
      "'",
      "s</w>"
    ],
    [
      "r",
      "a"
    ],
    [
      "ha",
      "t</w>"
    ],
    [
      "a",
      "s</w>"
    ],
    [
      "er",
      "e</w>"
    ],
    [
      "u",
      "t</w>"
    ],
    [
      "c",
      "h</w>"
    ],
    [
      "l",
      "a"
    ],
    [
      "u",
      "r"
    ],
    [
      "h",
      "is</w>"
    ],
    [
      "l",
      "e</w>"
    ],
    [
      "k",
      "e</w>"
    ],
    [
      "e",
      "t</w>"
    ],
    [
      "b",
      "e</w>"
    ],
    [
      "wi",
      "th</w>"
    ],
    [
      "g",
      "h"
    ],
    [
      "ha",
      "ve</w>"
    ],
    [
      "th",
      "e"
    ],
    [
      "d",
      "i"
    ],
    [
      "c",
      "o"
    ],
    [
      "'",
      "d</w>"
    ],
    [
      "f",
      "or</w>"
    ],
    [
      "i",
      "r</w>"
    ],
    [
      "ou",
      "r</w>"
    ],
    [
      "b",
      "e"
    ],
    [
      "f",
      "or"
    ],
    [
      "E",
      "N"
    ],
    [
      "f",
      "a"
    ],
    [
      "S",
      "</w>"
    ],
    [
      "a",
      "y</w>"
    ],
    [
      "I",
      "N"
    ],
    [
      "th",
      "er</w>"
    ],
    [
      "th",
      "is</w>"
    ],
    [
      "hi",
      "m</w>"
    ],
    [
      "l",
      "y</w>"
    ],
    [
      "d",
      "s</w>"
    ],
    [
      "h",
      "ea"
    ],
    [
      "c",
      "a"
    ],
    [
      "u",
      "n"
    ],
    [
      "A",
      "R"
    ],
    [
      "s",
      "h"
    ],
    [
      "e",
      "e"
    ],
    [
      "ar",
      "e</w>"
    ],
    [
      "ou",
      "ld</w>"
    ],
    [
      "p",
      "</w>"
    ],
    [
      "t",
      "a"
    ],
    [
      "w",
      "h"
    ],
    [
      "i",
      "r"
    ],
    [
      "wi",
      "ll</w>"
    ],
    [
      "I",
      "O</w>"
    ],
    [
      "l",
      "o"
    ],
    [
      "s",
      "p"
    ],
    [
      "e",
      "ll</w>"
    ],
    [
      "a",
      "t"
    ],
    [
      "r",
      "ea"
    ],
    [
      "s",
      "ha"
    ],
    [
      "gh",
      "t</w>"
    ],
    [
      "s",
      "u"
    ],
    [
      "s",
      "o</w>"
    ],
    [
      "oo",
      "d</w>"
    ],
    [
      "A",
      "</w>"
    ],
    [
      "on",
      "e</w>"
    ],
    [
      "es",
      "s</w>"
    ],
    [
      "e",
      "v"
    ],
    [
      "b",
      "ut</w>"
    ],
    [
      "W",
      "h"
    ],
    [
      "U",
      "S</w>"
    ],
    [
      "u",
      "s</w>"
    ],
    [
      "es",
      "t</w>"
    ],
    [
      "a",
      "ll</w>"
    ],
    [
      "n",
      "ow</w>"
    ],
    [
      "or",
      "d</w>"
    ],
    [
      "s",
      "i"
    ],
    [
      "t",
      "y</w>"
    ],
    [
      "r",
      "u"
    ],
    [
      "m",
      "i"
    ],
    [
      "T",
      "he</w>"
    ],
    [
      "t",
      "s</w>"
    ],
    [
      "T",
      "o</w>"
    ],
    [
      "c",
      "on"
    ],
    [
      "a",
      "n</w>"
    ],
    [
      "en",
      "t</w>"
    ],
    [
      "b",
      "y</w>"
    ],
    [
      "h",
      "er</w>"
    ],
    [
      "d",
      "o</w>"
    ],
    [
      "c",
      "h"
    ],
    [
      "s",
      "a"
    ],
    [
      "o",
      "me</w>"
    ],
    [
      "sha",
      "ll</w>"
    ],
    [
      "o",
      "l"
    ],
    [
      "m",
      "or"
    ],
    [
      "E",
      "</w>"
    ],
    [
      "T",
      "h"
    ],
    [
      "ma",
      "n</w>"
    ],
    [
      "g",
      "e</w>"
    ],
    [
      "ea",
      "r</w>"
    ],
    [
      "t",
      "er</w>"
    ],
    [
      "U",
      "C"
    ],
    [
      "IN",
      "G"
    ],
    [
      "n",
      "o</w>"
    ],
    [
      "ea",
      "r"
    ],
    [
      "w",
      "e</w>"
    ],
    [
      "ow",
      "n</w>"
    ],
    [
      "A",
      "N"
    ],
    [
      "m",
      "u"
    ],
    [
      "l",
      "e"
    ],
    [
      "c",
      "k</w>"
    ],
    [
      "E",
      "R"
    ],
    [
      "O",
      "R"
    ],
    [
      "m",
      "o"
    ],
    [
      "co",
      "m"
    ],
    [
      "s",
      "e"
    ],
    [
      "T",
      "hat</w>"
    ],
    [
      "s",
      "el"
    ],
    [
      "a",
      "l"
    ],
    [
      "E",
      "T"
    ],
    [
      "D",
      "</w>"
    ],
    [
      "ro",
      "m</w>"
    ],
    [
      "w",
      "or"
    ],
    [
      "d",
      "e"
    ],
    [
      "w",
      "hat</w>"
    ],
    [
      "Y",
      "ou"
    ],
    [
      "q",
      "u"
    ],
    [
      "B",
      "ut</w>"
    ],
    [
      "m",
      "e"
    ],
    [
      "c",
      "i"
    ],
    [
      "p",
      "o"
    ],
    [
      "er",
      "e"
    ],
    [
      "Y",
      "</w>"
    ],
    [
      "hi",
      "ch</w>"
    ],
    [
      "er",
      "s</w>"
    ],
    [
      "a",
      "m</w>"
    ],
    [
      "en",
      "t"
    ],
    [
      "'",
      "ll</w>"
    ],
    [
      "en",
      "ce</w>"
    ],
    [
      "g",
      "ood</w>"
    ],
    [
      "b",
      "l"
    ],
    [
      "You",
      "</w>"
    ],
    [
      "g",
      "a"
    ],
    [
      "d",
      "e</w>"
    ],
    [
      "K",
      "ING"
    ],
    [
      "t",
      "o"
    ],
    [
      "g",
      "</w>"
    ],
    [
      "p",
      "a"
    ],
    [
      "b",
      "o"
    ],
    [
      "f",
      "rom</w>"
    ],
    [
      "f",
      "i"
    ],
    [
      "co",
      "me</w>"
    ],
    [
      "n",
      "e"
    ],
    [
      "mor",
      "e</w>"
    ],
    [
      "ou",
      "s</w>"
    ],
    [
      "W",
      "hat</w>"
    ],
    [
      "b",
      "le</w>"
    ],
    [
      "v",
      "i"
    ],
    [
      "I",
      "C"
    ],
    [
      "for",
      "e</w>"
    ],
    [
      "w",
      "as</w>"
    ],
    [
      "p",
      "ro"
    ],
    [
      "i",
      "f</w>"
    ],
    [
      "d",
      "ea"
    ],
    [
      "w",
      "ell</w>"
    ],
    [
      "O",
      "L"
    ],
    [
      "w",
      "ould</w>"
    ],
    [
      "s",
      "w"
    ],
    [
      "k",
      "ing</w>"
    ],
    [
      "sel",
      "f</w>"
    ],
    [
      "c",
      "ou"
    ],
    [
      "l",
      "ea"
    ],
    [
      "f",
      "u"
    ],
    [
      "E",
      "L"
    ],
    [
      "s",
      "ir</w>"
    ],
    [
      "m",
      "in"
    ],
    [
      "r",
      "y</w>"
    ],
    [
      "the",
      "m</w>"
    ],
    [
      "F",
      "or</w>"
    ],
    [
      "ti",
      "on</w>"
    ],
    [
      "d",
      "o"
    ],
    [
      "I",
      "US</w>"
    ],
    [
      "l",
      "ord</w>"
    ],
    [
      "KING",
      "</w>"
    ],
    [
      "ev",
      "er</w>"
    ],
    [
      "p",
      "r"
    ],
    [
      "AR",
      "D</w>"
    ],
    [
      "ha",
      "s</w>"
    ],
    [
      "t",
      "e</w>"
    ],
    [
      "ou",
      "t</w>"
    ],
    [
      "hea",
      "r"
    ],
    [
      "the",
      "ir</w>"
    ],
    [
      "g",
      "h</w>"
    ],
    [
      "W",
      "i"
    ],
    [
      "the",
      "y</w>"
    ],
    [
      "S",
      "T"
    ],
    [
      "p",
      "ar"
    ],
    [
      "M",
      "y</w>"
    ],
    [
      "w",
      "</w>"
    ],
    [
      "w",
      "ere</w>"
    ],
    [
      "w",
      "ar"
    ],
    [
      "s",
      "on</w>"
    ],
    [
      "th",
      "en</w>"
    ],
    [
      "d",
      "y</w>"
    ],
    [
      "I",
      "'ll</w>"
    ],
    [
      "an",
      "t</w>"
    ],
    [
      "f",
      "e</w>"
    ],
    [
      "en",
      "d</w>"
    ],
    [
      "h",
      "o"
    ],
    [
      "g",
      "u"
    ],
    [
      "g",
      "i"
    ],
    [
      "h",
      "ere</w>"
    ],
    [
      "s",
      "he</w>"
    ],
    [
      "lo",
      "ve</w>"
    ],
    [
      "O",
      "N"
    ],
    [
      "v",
      "er"
    ],
    [
      "i",
      "d</w>"
    ],
    [
      "u",
      "p"
    ],
    [
      "s",
      "ay</w>"
    ],
    [
      "t",
      "ru"
    ],
    [
      "b",
      "ro"
    ],
    [
      "li",
      "ke</w>"
    ],
    [
      "t",
      "t"
    ],
    [
      "A",
      "s</w>"
    ],
    [
      "ma",
      "y</w>"
    ],
    [
      "g",
      "ra"
    ],
    [
      "ur",
      "e</w>"
    ],
    [
      "K",
      "E</w>"
    ],
    [
      "an",
      "y</w>"
    ],
    [
      "l",
      "l"
    ],
    [
      "o",
      "f"
    ],
    [
      "n",
      "i"
    ],
    [
      "m",
      "p"
    ],
    [
      "c",
      "k"
    ],
    [
      "e",
      "c"
    ],
    [
      "a",
      "l</w>"
    ],
    [
      "ir",
      "st</w>"
    ],
    [
      "v",
      "es</w>"
    ],
    [
      "ma",
      "ke</w>"
    ],
    [
      "c",
      "ha"
    ],
    [
      "N",
      "o</w>"
    ],
    [
      "th",
      "ou"
    ],
    [
      "b",
      "a"
    ],
    [
      "k",
      "now</w>"
    ],
    [
      "w",
      "ay</w>"
    ],
    [
      "l",
      "et</w>"
    ],
    [
      "d",
      "er</w>"
    ],
    [
      "th",
      "an</w>"
    ],
    [
      "I",
      "s</w>"
    ],
    [
      "R",
      "O"
    ],
    [
      "mu",
      "st</w>"
    ],
    [
      "u",
      "s"
    ],
    [
      "T",
      "IO</w>"
    ],
    [
      "d",
      "a"
    ],
    [
      "I",
      "t</w>"
    ],
    [
      "sh",
      "ould</w>"
    ],
    [
      "t",
      "ed</w>"
    ],
    [
      "m",
      "en</w>"
    ],
    [
      "d",
      "u"
    ],
    [
      "di",
      "d</w>"
    ],
    [
      "ET",
      "</w>"
    ],
    [
      "A",
      "U"
    ],
    [
      "m",
      "b"
    ],
    [
      "up",
      "on</w>"
    ],
    [
      "s",
      "o"
    ],
    [
      "r",
      "an"
    ],
    [
      "i",
      "s"
    ],
    [
      "p",
      "p"
    ],
    [
      "w",
      "a"
    ],
    [
      "n",
      "a"
    ],
    [
      "ea",
      "k</w>"
    ],
    [
      "w",
      "hich</w>"
    ],
    [
      "fu",
      "l</w>"
    ],
    [
      "ha",
      "d</w>"
    ],
    [
      "th",
      "ing</w>"
    ],
    [
      "f",
      "ri"
    ],
    [
      "I",
      "f</w>"
    ],
    [
      "p",
      "er"
    ],
    [
      "g",
      "o</w>"
    ],
    [
      "h",
      "ow</w>"
    ],
    [
      "r",
      "s</w>"
    ],
    [
      "K",
      "</w>"
    ],
    [
      "g",
      "o"
    ],
    [
      "es",
      "e</w>"
    ],
    [
      "a",
      "ga"
    ],
    [
      "Y",
      "our</w>"
    ],
    [
      "C",
      "A"
    ],
    [
      "dea",
      "th</w>"
    ],
    [
      "IC",
      "H"
    ],
    [
      "R",
      "ICH"
    ],
    [
      "u",
      "p</w>"
    ],
    [
      "k",
      "s</w>"
    ],
    [
      "th",
      "ere</w>"
    ],
    [
      "D",
      "U"
    ],
    [
      "DU",
      "KE</w>"
    ],
    [
      "th",
      "in"
    ],
    [
      "ti",
      "me</w>"
    ],
    [
      "to",
      "o</w>"
    ],
    [
      "p",
      "i"
    ],
    [
      "at",
      "e</w>"
    ],
    [
      "on",
      "g</w>"
    ],
    [
      "y",
      "et</w>"
    ],
    [
      "se",
      "e</w>"
    ],
    [
      "ee",
      "p</w>"
    ],
    [
      "ca",
      "n</w>"
    ],
    [
      "h",
      "on"
    ],
    [
      "w",
      "o"
    ],
    [
      "min",
      "e</w>"
    ],
    [
      "m",
      "ar"
    ],
    [
      "t",
      "'s</w>"
    ],
    [
      "t",
      "ter</w>"
    ],
    [
      "s",
      "ome</w>"
    ],
    [
      "RICH",
      "ARD</w>"
    ],
    [
      "EN",
      "TIO</w>"
    ],
    [
      "o",
      "se</w>"
    ],
    [
      "wh",
      "en</w>"
    ],
    [
      "e",
      "y"
    ],
    [
      "ER",
      "</w>"
    ],
    [
      "W",
      "hich</w>"
    ],
    [
      "H",
      "e</w>"
    ],
    [
      "G",
      "o"
    ],
    [
      "p",
      "la"
    ],
    [
      "a",
      "c"
    ],
    [
      "d",
      "es"
    ],
    [
      "st",
      "er</w>"
    ],
    [
      "h",
      "e"
    ],
    [
      "e",
      "x"
    ],
    [
      "v",
      "en</w>"
    ],
    [
      "u",
      "se</w>"
    ],
    [
      "st",
      "i"
    ],
    [
      "r",
      "ow</w>"
    ],
    [
      "IN",
      "C"
    ],
    [
      "oo",
      "k</w>"
    ],
    [
      "ear",
      "s</w>"
    ],
    [
      "sp",
      "eak</w>"
    ],
    [
      "Wh",
      "y</w>"
    ],
    [
      "d",
      "ay</w>"
    ],
    [
      "fa",
      "ther</w>"
    ],
    [
      "s",
      "ou"
    ],
    [
      "r",
      "ou"
    ],
    [
      "H",
      "a"
    ],
    [
      "gi",
      "ve</w>"
    ],
    [
      "su",
      "ch</w>"
    ],
    [
      "F",
      "irst</w>"
    ],
    [
      "v",
      "ed</w>"
    ],
    [
      "ing",
      "s</w>"
    ],
    [
      "in",
      "d</w>"
    ],
    [
      "ta",
      "ke</w>"
    ],
    [
      "c",
      "e"
    ],
    [
      "mo",
      "st</w>"
    ],
    [
      "A",
      "B"
    ],
    [
      "g",
      "ent"
    ],
    [
      "n",
      "ever</w>"
    ],
    [
      "t",
      "er"
    ],
    [
      "t",
      "w"
    ],
    [
      "n",
      "ess</w>"
    ],
    [
      "e",
      "en</w>"
    ],
    [
      "th",
      "ese</w>"
    ],
    [
      "be",
      "fore</w>"
    ],
    [
      "I",
      "n</w>"
    ],
    [
      "d",
      "er"
    ],
    [
      "i",
      "g"
    ],
    [
      "L",
      "O"
    ],
    [
      "s",
      "h</w>"
    ],
    [
      "o",
      "p"
    ],
    [
      "Wi",
      "th</w>"
    ],
    [
      "I",
      "I</w>"
    ],
    [
      "r",
      "es"
    ],
    [
      "c",
      "hi"
    ],
    [
      "p",
      "ri"
    ],
    [
      "cou",
      "n"
    ],
    [
      "el",
      "l"
    ],
    [
      "E",
      "ST"
    ],
    [
      "T",
      "his</w>"
    ],
    [
      "EN",
      "</w>"
    ],
    [
      "p",
      "ra"
    ],
    [
      "H",
      "ow</w>"
    ],
    [
      "li",
      "fe</w>"
    ],
    [
      "UC",
      "H"
    ],
    [
      "O",
      "f</w>"
    ],
    [
      "F",
      "</w>"
    ],
    [
      "an",
      "ce</w>"
    ],
    [
      "C",
      "ome</w>"
    ],
    [
      "m",
      "s</w>"
    ],
    [
      "do",
      "es</w>"
    ],
    [
      "G",
      "LO"
    ],
    [
      "GLO",
      "UC"
    ],
    [
      "GLOUC",
      "EST"
    ],
    [
      "GLOUCEST",
      "ER</w>"
    ],
    [
      "in",
      "ce</w>"
    ],
    [
      "S",
      "o</w>"
    ],
    [
      "E",
      "EN</w>"
    ],
    [
      "Go",
      "d</w>"
    ],
    [
      "h",
      "ou"
    ],
    [
      "m",
      "ent</w>"
    ],
    [
      "hear",
      "t</w>"
    ],
    [
      "L",
      "I"
    ],
    [
      "y",
      "self</w>"
    ],
    [
      "c",
      "an"
    ],
    [
      "s",
      "ed</w>"
    ],
    [
      "ow",
      "s</w>"
    ],
    [
      "R",
      "Y</w>"
    ],
    [
      "a",
      "b"
    ],
    [
      "t",
      "ell</w>"
    ],
    [
      "v",
      "o"
    ],
    [
      "Q",
      "U"
    ],
    [
      "QU",
      "EEN</w>"
    ],
    [
      "V",
      "INC"
    ],
    [
      "VINC",
      "ENTIO</w>"
    ],
    [
      "M",
      "ar"
    ],
    [
      "hea",
      "r</w>"
    ],
    [
      "ma",
      "de</w>"
    ],
    [
      "a",
      "d"
    ],
    [
      "mu",
      "ch</w>"
    ],
    [
      "O",
      "F</w>"
    ],
    [
      "s",
      "er"
    ],
    [
      "'",
      "st</w>"
    ],
    [
      "d",
      "'s</w>"
    ],
    [
      "i",
      "t"
    ],
    [
      "thin",
      "k</w>"
    ],
    [
      "p",
      "e"
    ],
    [
      "i",
      "l"
    ],
    [
      "an",
      "g"
    ],
    [
      "a",
      "f"
    ],
    [
      "d",
      "r"
    ],
    [
      "y",
      "s</w>"
    ],
    [
      "b",
      "rea"
    ],
    [
      "war",
      "d</w>"
    ],
    [
      "L",
      "ord</w>"
    ],
    [
      "o",
      "ther</w>"
    ],
    [
      "N",
      "ow</w>"
    ],
    [
      "on",
      "s</w>"
    ],
    [
      "S",
      "e"
    ],
    [
      "o",
      "ld</w>"
    ],
    [
      "th",
      "ere"
    ],
    [
      "g",
      "rea"
    ],
    [
      "cha",
      "r"
    ],
    [
      "H",
      "EN"
    ],
    [
      "HEN",
      "RY</w>"
    ],
    [
      "E",
      "S"
    ],
    [
      "an",
      "ds</w>"
    ],
    [
      "B",
      "e"
    ],
    [
      "t",
      "en"
    ],
    [
      "l",
      "ess</w>"
    ],
    [
      "s",
      "s</w>"
    ],
    [
      "OR",
      "I"
    ],
    [
      "st",
      "r"
    ],
    [
      "d",
      "ed</w>"
    ],
    [
      "ni",
      "ght</w>"
    ],
    [
      "'",
      "t</w>"
    ],
    [
      "er",
      "'s</w>"
    ],
    [
      "w",
      "hi"
    ],
    [
      "di",
      "s"
    ],
    [
      "i",
      "l</w>"
    ],
    [
      "v",
      "en"
    ],
    [
      "r",
      "e</w>"
    ],
    [
      "E",
      "S</w>"
    ],
    [
      "R",
      "o"
    ],
    [
      "ur",
      "se</w>"
    ],
    [
      "bl",
      "ood</w>"
    ],
    [
      "bro",
      "ther</w>"
    ],
    [
      "t",
      "u"
    ],
    [
      "Y",
      "OR"
    ],
    [
      "YOR",
      "K</w>"
    ],
    [
      "p",
      "re"
    ],
    [
      "j",
      "o"
    ],
    [
      "W",
      "e</w>"
    ],
    [
      "d",
      "one</w>"
    ],
    [
      "v",
      "er</w>"
    ],
    [
      "u",
      "gh"
    ],
    [
      "t",
      "e"
    ],
    [
      "e",
      "et</w>"
    ],
    [
      "ver",
      "y</w>"
    ],
    [
      "en",
      "ds</w>"
    ],
    [
      "gu",
      "e</w>"
    ],
    [
      "wi",
      "th"
    ],
    [
      "O",
      "r</w>"
    ],
    [
      "IN",
      "IUS</w>"
    ],
    [
      "m",
      "an"
    ],
    [
      "el",
      "y</w>"
    ],
    [
      "can",
      "not</w>"
    ],
    [
      "pr",
      "es"
    ],
    [
      "ow",
      "er</w>"
    ],
    [
      "m",
      "er"
    ],
    [
      "p",
      "e</w>"
    ],
    [
      "in",
      "st</w>"
    ],
    [
      "c",
      "es</w>"
    ],
    [
      "na",
      "me</w>"
    ],
    [
      "h",
      "and</w>"
    ],
    [
      "tru",
      "e</w>"
    ],
    [
      "in",
      "e</w>"
    ],
    [
      "P",
      "ET"
    ],
    [
      "be",
      "en</w>"
    ],
    [
      "l",
      "or"
    ],
    [
      "t",
      "ra"
    ],
    [
      "d",
      "ing</w>"
    ],
    [
      "fa",
      "ir</w>"
    ],
    [
      "R",
      "i"
    ],
    [
      "E",
      "D"
    ],
    [
      "ED",
      "W"
    ],
    [
      "EDW",
      "ARD</w>"
    ],
    [
      "k",
      "n"
    ],
    [
      "no",
      "ble</w>"
    ],
    [
      "n",
      "g"
    ],
    [
      "G",
      "R"
    ],
    [
      "s",
      "ee"
    ],
    [
      "T",
      "H"
    ],
    [
      "aga",
      "in</w>"
    ],
    [
      "f",
      "e"
    ],
    [
      "wh",
      "ere</w>"
    ],
    [
      "U",
      "M"
    ],
    [
      "M",
      "I"
    ],
    [
      "er",
      "y</w>"
    ],
    [
      "p",
      "lea"
    ],
    [
      "L",
      "E"
    ],
    [
      "L",
      "UC"
    ],
    [
      "A",
      "y</w>"
    ],
    [
      "M",
      "EN"
    ],
    [
      "c",
      "r"
    ],
    [
      "d",
      "ly</w>"
    ],
    [
      "T",
      "ha"
    ],
    [
      "EL",
      "L"
    ],
    [
      "con",
      "d</w>"
    ],
    [
      "j",
      "u"
    ],
    [
      "o",
      "m</w>"
    ],
    [
      "l",
      "t</w>"
    ],
    [
      "b",
      "u"
    ],
    [
      "f",
      "ol"
    ],
    [
      "v",
      "ing</w>"
    ],
    [
      "l",
      "u"
    ],
    [
      "e",
      "y</w>"
    ],
    [
      "E",
      "d"
    ],
    [
      "M",
      "E"
    ],
    [
      "you",
      "rs</w>"
    ],
    [
      "RO",
      "ME"
    ],
    [
      "ROME",
      "O</w>"
    ],
    [
      "MEN",
      "EN"
    ],
    [
      "MENEN",
      "IUS</w>"
    ],
    [
      "Wh",
      "en</w>"
    ],
    [
      "bo",
      "th</w>"
    ],
    [
      "B",
      "y</w>"
    ],
    [
      "li",
      "ve</w>"
    ],
    [
      "ar",
      "d</w>"
    ],
    [
      "c",
      "or"
    ],
    [
      "m",
      "on"
    ],
    [
      "n",
      "or</w>"
    ],
    [
      "f",
      "ou"
    ],
    [
      "Th",
      "en</w>"
    ],
    [
      "a",
      "p"
    ],
    [
      "com",
      "es</w>"
    ],
    [
      "PET",
      "R"
    ],
    [
      "PETR",
      "UCH"
    ],
    [
      "PETRUCH",
      "IO</w>"
    ],
    [
      "Wh",
      "ere</w>"
    ],
    [
      "O",
      "M"
    ],
    [
      "b",
      "r"
    ],
    [
      "b",
      "ea"
    ],
    [
      "t",
      "ri"
    ],
    [
      "re",
      "e</w>"
    ],
    [
      "hon",
      "our</w>"
    ],
    [
      "t",
      "ing</w>"
    ],
    [
      "p",
      "s</w>"
    ],
    [
      "be",
      "ing</w>"
    ],
    [
      "f",
      "l"
    ],
    [
      "s",
      "s"
    ],
    [
      "t",
      "ur"
    ],
    [
      "lea",
      "ve</w>"
    ],
    [
      "s",
      "hi"
    ],
    [
      "m",
      "yself</w>"
    ],
    [
      "grea",
      "t</w>"
    ],
    [
      "M",
      "AR"
    ],
    [
      "H",
      "A"
    ],
    [
      "ON",
      "T"
    ],
    [
      "wh",
      "o</w>"
    ],
    [
      "s",
      "en"
    ],
    [
      "th",
      "us</w>"
    ],
    [
      "l",
      "and</w>"
    ],
    [
      "h",
      "er"
    ],
    [
      "C",
      "l"
    ],
    [
      "i",
      "ll</w>"
    ],
    [
      "e",
      "'s</w>"
    ],
    [
      "C",
      "ORI"
    ],
    [
      "CORI",
      "OL"
    ],
    [
      "CORIOL",
      "AN"
    ],
    [
      "CORIOLAN",
      "US</w>"
    ],
    [
      "Se",
      "cond</w>"
    ],
    [
      "k",
      "es</w>"
    ],
    [
      "I",
      "S"
    ],
    [
      "c",
      "u"
    ],
    [
      "sw",
      "eet</w>"
    ],
    [
      "i",
      "ti"
    ],
    [
      "b",
      "ear</w>"
    ],
    [
      "ca",
      "use</w>"
    ],
    [
      "d",
      "own</w>"
    ],
    [
      "wor",
      "ld</w>"
    ],
    [
      "in",
      "t</w>"
    ],
    [
      "w",
      "s</w>"
    ],
    [
      "ey",
      "es</w>"
    ],
    [
      "s",
      "or"
    ],
    [
      "B",
      "A"
    ],
    [
      "ir",
      "e</w>"
    ],
    [
      "gra",
      "ce</w>"
    ],
    [
      "hea",
      "d</w>"
    ],
    [
      "ha",
      "r"
    ],
    [
      "b",
      "i"
    ],
    [
      "a",
      "ge</w>"
    ],
    [
      "s",
      "l"
    ],
    [
      "c",
      "ar"
    ],
    [
      "Wh",
      "o</w>"
    ],
    [
      "s",
      "ea"
    ],
    [
      "g",
      "er</w>"
    ],
    [
      "t",
      "on"
    ],
    [
      "da",
      "ugh"
    ],
    [
      "f",
      "oo"
    ],
    [
      "IN",
      "A</w>"
    ],
    [
      "h",
      "el"
    ],
    [
      "f",
      "t</w>"
    ],
    [
      "hou",
      "se</w>"
    ],
    [
      "ou",
      "r"
    ],
    [
      "wi",
      "fe</w>"
    ],
    [
      "t",
      "un"
    ],
    [
      "I",
      "V"
    ],
    [
      "a",
      "way</w>"
    ],
    [
      "po",
      "or</w>"
    ],
    [
      "g",
      "ri"
    ],
    [
      "st",
      "and</w>"
    ],
    [
      "th",
      "er's</w>"
    ],
    [
      "dea",
      "d</w>"
    ],
    [
      "qu",
      "een</w>"
    ],
    [
      "I",
      "II</w>"
    ],
    [
      "N",
      "o"
    ],
    [
      "Tha",
      "n</w>"
    ],
    [
      "m",
      "ea"
    ],
    [
      "ou",
      "n"
    ],
    [
      "di",
      "e</w>"
    ],
    [
      "b",
      "ra"
    ],
    [
      "e",
      "f</w>"
    ],
    [
      "cou",
      "r"
    ],
    [
      "tt",
      "le</w>"
    ],
    [
      "in",
      "s</w>"
    ],
    [
      "a",
      "ke</w>"
    ],
    [
      "G",
      "o</w>"
    ],
    [
      "d",
      "on</w>"
    ],
    [
      "W",
      "ar"
    ],
    [
      "s",
      "et</w>"
    ],
    [
      "gent",
      "le"
    ],
    [
      "fri",
      "ends</w>"
    ],
    [
      "m",
      "any</w>"
    ],
    [
      "t",
      "or"
    ],
    [
      "War",
      "wi"
    ],
    [
      "hea",
      "ven</w>"
    ],
    [
      "s",
      "in</w>"
    ],
    [
      "b",
      "an"
    ],
    [
      "de",
      "ed</w>"
    ],
    [
      "ea",
      "ce</w>"
    ],
    [
      "f",
      "ear</w>"
    ],
    [
      "ou",
      "gh</w>"
    ],
    [
      "s",
      "la"
    ],
    [
      "H",
      "is</w>"
    ],
    [
      "Ro",
      "me"
    ],
    [
      "A",
      "D"
    ],
    [
      "w",
      "e"
    ],
    [
      "IS",
      "AB"
    ],
    [
      "ISAB",
      "ELL"
    ],
    [
      "ISABELL",
      "A</w>"
    ],
    [
      "l",
      "ook</w>"
    ],
    [
      "g",
      "one</w>"
    ],
    [
      "w",
      "ord</w>"
    ],
    [
      "li",
      "e"
    ],
    [
      "W",
      "ell</w>"
    ],
    [
      "l",
      "es</w>"
    ],
    [
      "R",
      "AN"
    ],
    [
      "mo",
      "ther</w>"
    ],
    [
      "pra",
      "y</w>"
    ],
    [
      "l",
      "oo"
    ],
    [
      "no",
      "thing</w>"
    ],
    [
      "L",
      "et</w>"
    ],
    [
      "s",
      "es</w>"
    ],
    [
      "m",
      "en"
    ],
    [
      "g",
      "e"
    ],
    [
      "s",
      "ure</w>"
    ],
    [
      "J",
      "U"
    ],
    [
      "JU",
      "LI"
    ],
    [
      "JULI",
      "ET</w>"
    ],
    [
      "LE",
      "ONT"
    ],
    [
      "LEONT",
      "ES</w>"
    ],
    [
      "ec",
      "t</w>"
    ],
    [
      "thou",
      "gh</w>"
    ],
    [
      "ci",
      "ous</w>"
    ],
    [
      "wor",
      "ds</w>"
    ],
    [
      "er",
      "v"
    ],
    [
      "y",
      "'s</w>"
    ],
    [
      "P",
      "ro"
    ],
    [
      "com",
      "m"
    ],
    [
      "be",
      "tter</w>"
    ],
    [
      "par",
      "t</w>"
    ],
    [
      "L",
      "AD"
    ],
    [
      "LAD",
      "Y</w>"
    ],
    [
      "con",
      "t"
    ],
    [
      "ti",
      "ll</w>"
    ],
    [
      "Ha",
      "ve</w>"
    ],
    [
      "si",
      "on</w>"
    ],
    [
      "V",
      "OL"
    ],
    [
      "w",
      "r"
    ],
    [
      "EN",
      "C"
    ],
    [
      "ENC",
      "E</w>"
    ],
    [
      "st",
      "ay</w>"
    ],
    [
      "ne",
      "ws</w>"
    ],
    [
      "B",
      "R"
    ],
    [
      "qu",
      "i"
    ],
    [
      "C",
      "iti"
    ],
    [
      "Citi",
      "z"
    ],
    [
      "C",
      "a"
    ],
    [
      "aga",
      "inst</w>"
    ],
    [
      "of",
      "f</w>"
    ],
    [
      "m",
      "es</w>"
    ],
    [
      "Warwi",
      "ck</w>"
    ],
    [
      "re",
      "p"
    ],
    [
      "or",
      "e</w>"
    ],
    [
      "i",
      "ther</w>"
    ],
    [
      "ca",
      "ll</w>"
    ],
    [
      "ho",
      "ld</w>"
    ],
    [
      "th",
      "ose</w>"
    ],
    [
      "ri",
      "ght</w>"
    ],
    [
      "sou",
      "l</w>"
    ],
    [
      "an",
      "s</w>"
    ],
    [
      "li",
      "ttle</w>"
    ],
    [
      "S",
      "IC"
    ],
    [
      "SIC",
      "INIUS</w>"
    ],
    [
      "daugh",
      "ter</w>"
    ],
    [
      "S",
      "erv"
    ],
    [
      "i",
      "ve</w>"
    ],
    [
      "l",
      "s</w>"
    ],
    [
      "i",
      "sh"
    ],
    [
      "Rome",
      "o</w>"
    ],
    [
      "r",
      "est</w>"
    ],
    [
      "th",
      "an"
    ],
    [
      "l",
      "ou"
    ],
    [
      "a",
      "r</w>"
    ],
    [
      "Ed",
      "ward</w>"
    ],
    [
      "m",
      "self</w>"
    ],
    [
      "t",
      "en</w>"
    ],
    [
      "p",
      "ur"
    ],
    [
      "B",
      "e</w>"
    ],
    [
      "for",
      "d</w>"
    ],
    [
      "f",
      "f"
    ],
    [
      "hi",
      "mself</w>"
    ],
    [
      "h",
      "or"
    ],
    [
      "sti",
      "ll</w>"
    ],
    [
      "c",
      "ur"
    ],
    [
      "er",
      "'d</w>"
    ],
    [
      "S",
      "ir</w>"
    ],
    [
      "l",
      "ong</w>"
    ],
    [
      "No",
      "t</w>"
    ],
    [
      "c",
      "y</w>"
    ],
    [
      "in",
      "c"
    ],
    [
      "U",
      "n"
    ],
    [
      "fa",
      "ce</w>"
    ],
    [
      "h",
      "ence</w>"
    ],
    [
      "tw",
      "o</w>"
    ],
    [
      "LUC",
      "IO</w>"
    ],
    [
      "en",
      "e"
    ],
    [
      "b",
      "es"
    ],
    [
      "su",
      "b"
    ],
    [
      "n",
      "s</w>"
    ],
    [
      "T",
      "I"
    ],
    [
      "l",
      "an"
    ],
    [
      "Ri",
      "char"
    ],
    [
      "IV",
      "</w>"
    ],
    [
      "S",
      "ha"
    ],
    [
      "there",
      "fore</w>"
    ],
    [
      "ri",
      "ed</w>"
    ],
    [
      "L",
      "O</w>"
    ],
    [
      "f",
      "irst</w>"
    ],
    [
      "c",
      "ed</w>"
    ],
    [
      "g",
      "ar"
    ],
    [
      "t",
      "ch</w>"
    ],
    [
      "Y",
      "or"
    ],
    [
      "c",
      "ould</w>"
    ],
    [
      "in",
      "ess</w>"
    ],
    [
      "c",
      "</w>"
    ],
    [
      "cr",
      "own</w>"
    ],
    [
      "H",
      "en"
    ],
    [
      "H",
      "</w>"
    ],
    [
      "p",
      "eace</w>"
    ],
    [
      "com",
      "p"
    ],
    [
      "l",
      "ow</w>"
    ],
    [
      "ig",
      "n</w>"
    ],
    [
      "EL",
      "I"
    ],
    [
      "ELI",
      "Z"
    ],
    [
      "ELIZ",
      "AB"
    ],
    [
      "ELIZAB",
      "ET"
    ],
    [
      "ELIZABET",
      "H</w>"
    ],
    [
      "t",
      "ly</w>"
    ],
    [
      "s",
      "ol"
    ],
    [
      "el",
      "se</w>"
    ],
    [
      "for",
      "th</w>"
    ],
    [
      "v",
      "a"
    ],
    [
      "h",
      "us"
    ],
    [
      "b",
      "ur"
    ],
    [
      "G",
      "ood</w>"
    ],
    [
      "n",
      "g</w>"
    ],
    [
      "GR",
      "E"
    ],
    [
      "I",
      "AN"
    ],
    [
      "pe",
      "op"
    ],
    [
      "ev",
      "en</w>"
    ],
    [
      "st",
      "a"
    ],
    [
      "ton",
      "gue</w>"
    ],
    [
      "Y",
      "et</w>"
    ],
    [
      "p",
      "ower</w>"
    ],
    [
      "ar",
      "e"
    ],
    [
      "n",
      "ing</w>"
    ],
    [
      "n",
      "'d</w>"
    ],
    [
      "mi",
      "ght</w>"
    ],
    [
      "or",
      "t</w>"
    ],
    [
      "f",
      "ell"
    ],
    [
      "b",
      "est</w>"
    ],
    [
      "b",
      "id</w>"
    ],
    [
      "be",
      "g"
    ],
    [
      "ro",
      "y"
    ],
    [
      "Yor",
      "k</w>"
    ],
    [
      "C",
      "L"
    ],
    [
      "whi",
      "le</w>"
    ],
    [
      "thou",
      "ght</w>"
    ],
    [
      "are",
      "well</w>"
    ],
    [
      "M",
      "a"
    ],
    [
      "ne",
      "w</w>"
    ],
    [
      "ha",
      "pp"
    ],
    [
      "M",
      "ER"
    ],
    [
      "P",
      "ER"
    ],
    [
      "ee",
      "ch</w>"
    ],
    [
      "H",
      "ere</w>"
    ],
    [
      "d",
      "ou"
    ],
    [
      "D",
      "o</w>"
    ],
    [
      "V",
      "I</w>"
    ],
    [
      "W",
      "AR"
    ],
    [
      "WAR",
      "W"
    ],
    [
      "WARW",
      "IC"
    ],
    [
      "WARWIC",
      "K</w>"
    ],
    [
      "Citiz",
      "en</w>"
    ],
    [
      "el",
      "d</w>"
    ],
    [
      "wh",
      "y</w>"
    ],
    [
      "ear",
      "th</w>"
    ],
    [
      "U",
      "T"
    ],
    [
      "Sha",
      "ll</w>"
    ],
    [
      "ee",
      "p"
    ],
    [
      "li",
      "ght</w>"
    ],
    [
      "Richar",
      "d</w>"
    ],
    [
      "du",
      "ke</w>"
    ],
    [
      "p",
      "t</w>"
    ],
    [
      "on",
      "ce</w>"
    ],
    [
      "ere",
      "'s</w>"
    ],
    [
      "ho",
      "pe</w>"
    ],
    [
      "gent",
      "le</w>"
    ],
    [
      "d",
      "rea"
    ],
    [
      "ur",
      "der"
    ],
    [
      "N",
      "urse</w>"
    ],
    [
      "Wi",
      "ll</w>"
    ],
    [
      "h",
      "ome</w>"
    ],
    [
      "p",
      "ut</w>"
    ],
    [
      "n",
      "one</w>"
    ],
    [
      "o",
      "ver</w>"
    ],
    [
      "tur",
      "n</w>"
    ],
    [
      "tun",
      "e</w>"
    ],
    [
      "lor",
      "ds</w>"
    ],
    [
      "HA",
      "M"
    ],
    [
      "HAM",
      "</w>"
    ],
    [
      "u",
      "r</w>"
    ],
    [
      "a",
      "s"
    ],
    [
      "sa",
      "id</w>"
    ],
    [
      "pla",
      "ce</w>"
    ],
    [
      "d",
      "en</w>"
    ],
    [
      "CA",
      "P"
    ],
    [
      "CAP",
      "U"
    ],
    [
      "CAPU",
      "L"
    ],
    [
      "CAPUL",
      "ET</w>"
    ],
    [
      "n",
      "at"
    ],
    [
      "p",
      "u"
    ],
    [
      "t",
      "ch"
    ],
    [
      "r",
      "ant</w>"
    ],
    [
      "c",
      "es"
    ],
    [
      "h",
      "ands</w>"
    ],
    [
      "you",
      "ng</w>"
    ],
    [
      "A",
      "ll</w>"
    ],
    [
      "ba",
      "ck</w>"
    ],
    [
      "gh",
      "ts</w>"
    ],
    [
      "el",
      "come</w>"
    ],
    [
      "hi",
      "ther</w>"
    ],
    [
      "a",
      "pp"
    ],
    [
      "b",
      "ri"
    ],
    [
      "ev",
      "ery</w>"
    ],
    [
      "k",
      "eep</w>"
    ],
    [
      "b",
      "ed</w>"
    ],
    [
      "g",
      "ed</w>"
    ],
    [
      "k",
      "in"
    ],
    [
      "w",
      "at"
    ],
    [
      "mor",
      "row</w>"
    ],
    [
      "d",
      "ear</w>"
    ],
    [
      "c",
      "ra"
    ],
    [
      "f",
      "ind</w>"
    ],
    [
      "g",
      "et</w>"
    ],
    [
      "BR",
      "UT"
    ],
    [
      "BRUT",
      "US</w>"
    ],
    [
      "li",
      "es</w>"
    ],
    [
      "d",
      "ra"
    ],
    [
      "B",
      "UC"
    ],
    [
      "BUC",
      "KING"
    ],
    [
      "BUCKING",
      "HAM</w>"
    ],
    [
      "peop",
      "le</w>"
    ],
    [
      "ee",
      "ds</w>"
    ],
    [
      "ca",
      "me</w>"
    ],
    [
      "g",
      "en"
    ],
    [
      "mb",
      "er</w>"
    ],
    [
      "F",
      "rom</w>"
    ],
    [
      "R",
      "ome</w>"
    ],
    [
      "c",
      "lo"
    ],
    [
      "d",
      "en"
    ],
    [
      "br",
      "ing</w>"
    ],
    [
      "ES",
      "S</w>"
    ],
    [
      "B",
      "OL"
    ],
    [
      "BOL",
      "ING"
    ],
    [
      "BOLING",
      "B"
    ],
    [
      "BOLINGB",
      "RO"
    ],
    [
      "BOLINGBRO",
      "KE</w>"
    ],
    [
      "T",
      "RAN"
    ],
    [
      "TRAN",
      "IO</w>"
    ],
    [
      "wh",
      "ose</w>"
    ],
    [
      "hear",
      "d</w>"
    ],
    [
      "hus",
      "b"
    ],
    [
      "t",
      "ears</w>"
    ],
    [
      "H",
      "as</w>"
    ],
    [
      "vo",
      "st</w>"
    ],
    [
      "a",
      "u"
    ],
    [
      "d",
      "ev"
    ],
    [
      "l",
      "ed</w>"
    ],
    [
      "b",
      "or"
    ],
    [
      "e",
      "l</w>"
    ],
    [
      "pr",
      "ince</w>"
    ],
    [
      "h",
      "u"
    ],
    [
      "Th",
      "ey</w>"
    ],
    [
      "s",
      "ince</w>"
    ],
    [
      "st",
      "ru"
    ],
    [
      "an",
      "sw"
    ],
    [
      "sp",
      "o"
    ],
    [
      "S",
      "he</w>"
    ],
    [
      "la",
      "dy</w>"
    ],
    [
      "st",
      "ra"
    ],
    [
      "i",
      "ght</w>"
    ],
    [
      "G",
      "AR"
    ],
    [
      "g",
      "s</w>"
    ],
    [
      "min",
      "d</w>"
    ],
    [
      "ma",
      "ster</w>"
    ],
    [
      "P",
      "e"
    ],
    [
      "K",
      "ing</w>"
    ],
    [
      "MAR",
      "GAR"
    ],
    [
      "MARGAR",
      "ET</w>"
    ],
    [
      "husb",
      "and</w>"
    ],
    [
      "fa",
      "l"
    ],
    [
      "te",
      "mp"
    ],
    [
      "MI",
      "L"
    ],
    [
      "A",
      "TH"
    ],
    [
      "v",
      "ir"
    ],
    [
      "O",
      "ur</w>"
    ],
    [
      "Th",
      "ere</w>"
    ],
    [
      "L",
      "i"
    ],
    [
      "t",
      "le</w>"
    ],
    [
      "of",
      "f"
    ],
    [
      "s",
      "ent</w>"
    ],
    [
      "wh",
      "om</w>"
    ],
    [
      "m",
      "'d</w>"
    ],
    [
      "A",
      "re</w>"
    ],
    [
      "P",
      "o"
    ],
    [
      "sel",
      "ves</w>"
    ],
    [
      "st",
      "ate</w>"
    ],
    [
      "thou",
      "s"
    ],
    [
      "po",
      "se</w>"
    ],
    [
      "re",
      "me"
    ],
    [
      "ha",
      "t's</w>"
    ],
    [
      "st",
      "ri"
    ],
    [
      "com",
      "for"
    ],
    [
      "d",
      "am</w>"
    ],
    [
      "par",
      "don</w>"
    ],
    [
      "B",
      "o"
    ],
    [
      "mea",
      "n</w>"
    ],
    [
      "Cl",
      "ar"
    ],
    [
      "AN",
      "G"
    ],
    [
      "ANG",
      "EL"
    ],
    [
      "ANGEL",
      "O</w>"
    ],
    [
      "H",
      "OR"
    ],
    [
      "ta",
      "l"
    ],
    [
      "k",
      "ing"
    ],
    [
      "k",
      "'d</w>"
    ],
    [
      "jo",
      "y</w>"
    ],
    [
      "fu",
      "ll</w>"
    ],
    [
      "st",
      "e</w>"
    ],
    [
      "b",
      "al"
    ],
    [
      "c",
      "la"
    ],
    [
      "gra",
      "cious</w>"
    ],
    [
      "Clar",
      "ence</w>"
    ],
    [
      "D",
      "u"
    ],
    [
      "EL",
      "</w>"
    ],
    [
      "C",
      "U"
    ],
    [
      "AR",
      "INA</w>"
    ],
    [
      "Mar",
      "ci"
    ],
    [
      "ab",
      "out</w>"
    ],
    [
      "fri",
      "end</w>"
    ],
    [
      "c",
      "re"
    ],
    [
      "N",
      "or</w>"
    ],
    [
      "g",
      "re"
    ],
    [
      "ta",
      "in</w>"
    ],
    [
      "AR",
      "</w>"
    ],
    [
      "K",
      "ATH"
    ],
    [
      "KATH",
      "ARINA</w>"
    ],
    [
      "Marci",
      "us</w>"
    ],
    [
      "b",
      "us"
    ],
    [
      "la",
      "ck</w>"
    ],
    [
      "s",
      "ing</w>"
    ],
    [
      "ou",
      "nd</w>"
    ],
    [
      "v",
      "y</w>"
    ],
    [
      "sp",
      "i"
    ],
    [
      "vo",
      "i"
    ],
    [
      "E",
      "ng"
    ],
    [
      "OR",
      "D</w>"
    ],
    [
      "O",
      "n"
    ],
    [
      "ey",
      "e</w>"
    ],
    [
      "shi",
      "p</w>"
    ],
    [
      "bo",
      "y</w>"
    ],
    [
      "ere",
      "fore</w>"
    ],
    [
      "in",
      "to</w>"
    ],
    [
      "sha",
      "me</w>"
    ],
    [
      "ban",
      "ish"
    ],
    [
      "c",
      "t</w>"
    ],
    [
      "you",
      "r"
    ],
    [
      "rea",
      "dy</w>"
    ],
    [
      "thous",
      "and</w>"
    ],
    [
      "ma",
      "kes</w>"
    ],
    [
      "dou",
      "b"
    ],
    [
      "d",
      "ge</w>"
    ],
    [
      "un",
      "c"
    ],
    [
      "ll",
      "'d</w>"
    ],
    [
      "S",
      "t"
    ],
    [
      "str",
      "ess</w>"
    ],
    [
      "d",
      "ness</w>"
    ],
    [
      "Hen",
      "ry</w>"
    ],
    [
      "ES",
      "CA"
    ],
    [
      "ESCA",
      "L"
    ],
    [
      "ESCAL",
      "US</w>"
    ],
    [
      "or",
      "i"
    ],
    [
      "con",
      "f"
    ],
    [
      "la",
      "st</w>"
    ],
    [
      "gentle",
      "man</w>"
    ],
    [
      "rou",
      "gh</w>"
    ],
    [
      "chi",
      "ld</w>"
    ],
    [
      "fa",
      "r</w>"
    ],
    [
      "d",
      "ar"
    ],
    [
      "roy",
      "al</w>"
    ],
    [
      "AN",
      "D</w>"
    ],
    [
      "i",
      "se</w>"
    ],
    [
      "coun",
      "t"
    ],
    [
      "hel",
      "p</w>"
    ],
    [
      "th",
      "y</w>"
    ],
    [
      "ee",
      "l</w>"
    ],
    [
      "fell",
      "ow</w>"
    ],
    [
      "p",
      "on</w>"
    ],
    [
      "y",
      "ing</w>"
    ],
    [
      "W",
      "ere</w>"
    ],
    [
      "C",
      "o"
    ],
    [
      "c",
      "en"
    ],
    [
      "li",
      "e</w>"
    ],
    [
      "k",
      "en</w>"
    ],
    [
      "do",
      "m</w>"
    ],
    [
      "wi",
      "lt</w>"
    ],
    [
      "A",
      "ng"
    ],
    [
      "Du",
      "ke</w>"
    ],
    [
      "D",
      "UCH"
    ],
    [
      "DUCH",
      "ESS</w>"
    ],
    [
      "plea",
      "se</w>"
    ],
    [
      "vi",
      "ce</w>"
    ],
    [
      "sh",
      "ow</w>"
    ],
    [
      "or",
      "s</w>"
    ],
    [
      "i",
      "</w>"
    ],
    [
      "W",
      "as</w>"
    ],
    [
      "t",
      "rea"
    ],
    [
      "ti",
      "mes</w>"
    ],
    [
      "es",
      "ty</w>"
    ],
    [
      "cou",
      "sin</w>"
    ],
    [
      "J",
      "u"
    ],
    [
      "RO",
      "S"
    ],
    [
      "fa",
      "u"
    ],
    [
      "me",
      "et</w>"
    ],
    [
      "wo",
      "man</w>"
    ],
    [
      "pro",
      "ve</w>"
    ],
    [
      "so",
      "me"
    ],
    [
      "urder",
      "er</w>"
    ],
    [
      "Ang",
      "el"
    ],
    [
      "in",
      "deed</w>"
    ],
    [
      "f",
      "o"
    ],
    [
      "answ",
      "er</w>"
    ],
    [
      "bro",
      "ke</w>"
    ],
    [
      "tw",
      "een</w>"
    ],
    [
      "I",
      "A</w>"
    ],
    [
      "af",
      "ter</w>"
    ],
    [
      "pa",
      "ti"
    ],
    [
      "s",
      "on"
    ],
    [
      "tra",
      "it"
    ],
    [
      "CA",
      "MIL"
    ],
    [
      "CAMIL",
      "LO</w>"
    ],
    [
      "f",
      "ur"
    ],
    [
      "W",
      "ould</w>"
    ],
    [
      "in",
      "k</w>"
    ],
    [
      "E",
      "ven</w>"
    ],
    [
      "w",
      "ea"
    ],
    [
      "d",
      "es</w>"
    ],
    [
      "i",
      "th</w>"
    ],
    [
      "sl",
      "eep</w>"
    ],
    [
      "l",
      "la"
    ],
    [
      "happ",
      "y</w>"
    ],
    [
      "R",
      "I"
    ],
    [
      "Pro",
      "vost</w>"
    ],
    [
      "su",
      "n</w>"
    ],
    [
      "s",
      "it</w>"
    ],
    [
      "L",
      "e"
    ],
    [
      "v",
      "ere"
    ],
    [
      "gri",
      "ef</w>"
    ],
    [
      "Angel",
      "o</w>"
    ],
    [
      "HOR",
      "T"
    ],
    [
      "HORT",
      "EN"
    ],
    [
      "HORTEN",
      "S"
    ],
    [
      "ou",
      "rs</w>"
    ],
    [
      "bo",
      "dy</w>"
    ],
    [
      "of",
      "fi"
    ],
    [
      "wa",
      "r</w>"
    ],
    [
      "o",
      "a"
    ],
    [
      "ck",
      "s</w>"
    ],
    [
      "fa",
      "ther's</w>"
    ],
    [
      "fa",
      "ll</w>"
    ],
    [
      "T",
      "hi"
    ],
    [
      "so",
      "vere"
    ],
    [
      "ta",
      "l</w>"
    ],
    [
      "st",
      "o"
    ],
    [
      "la",
      "w</w>"
    ],
    [
      "T",
      "y"
    ],
    [
      "sor",
      "row</w>"
    ],
    [
      "F",
      "RI"
    ],
    [
      "FRI",
      "AR</w>"
    ],
    [
      "HORTENS",
      "IO</w>"
    ],
    [
      "ra",
      "ther</w>"
    ],
    [
      "vir",
      "tu"
    ],
    [
      "si",
      "de</w>"
    ],
    [
      "on",
      "ly</w>"
    ],
    [
      "gra",
      "ve</w>"
    ],
    [
      "U",
      "pon</w>"
    ],
    [
      "an",
      "other</w>"
    ],
    [
      "la",
      "y</w>"
    ],
    [
      "I",
      "n"
    ],
    [
      "chi",
      "l"
    ],
    [
      "y",
      "ears</w>"
    ],
    [
      "p",
      "her"
    ],
    [
      "N",
      "or"
    ],
    [
      "BA",
      "P"
    ],
    [
      "BAP",
      "TI"
    ],
    [
      "BAPTI",
      "ST"
    ],
    [
      "BAPTIST",
      "A</w>"
    ],
    [
      "s",
      "ur"
    ],
    [
      "re",
      "ven"
    ],
    [
      "ma",
      "tter</w>"
    ],
    [
      "l",
      "ing</w>"
    ],
    [
      "w",
      "on"
    ],
    [
      "b",
      "el"
    ],
    [
      "men",
      "ts</w>"
    ],
    [
      "k",
      "ind</w>"
    ],
    [
      "ea",
      "ch</w>"
    ],
    [
      "f",
      "la"
    ],
    [
      "des",
      "er"
    ],
    [
      "C",
      "OM"
    ],
    [
      "COM",
      "INIUS</w>"
    ],
    [
      "un",
      "t</w>"
    ],
    [
      "h",
      "our</w>"
    ],
    [
      "t",
      "re"
    ],
    [
      "comfor",
      "t</w>"
    ],
    [
      "ti",
      "o</w>"
    ],
    [
      "AU",
      "T"
    ],
    [
      "AUT",
      "OL"
    ],
    [
      "AUTOL",
      "Y"
    ],
    [
      "AUTOLY",
      "C"
    ],
    [
      "AUTOLYC",
      "US</w>"
    ],
    [
      "en",
      "s</w>"
    ],
    [
      "lie",
      "ve</w>"
    ],
    [
      "C",
      "on"
    ],
    [
      "bus",
      "iness</w>"
    ],
    [
      "ar",
      "ms</w>"
    ],
    [
      "ha",
      "te</w>"
    ],
    [
      "M",
      "ore</w>"
    ],
    [
      "sw",
      "ear</w>"
    ],
    [
      "tru",
      "th</w>"
    ],
    [
      "Thi",
      "r"
    ],
    [
      "Thir",
      "d</w>"
    ],
    [
      "la",
      "te</w>"
    ],
    [
      "S",
      "a"
    ],
    [
      "ran",
      "ce</w>"
    ],
    [
      "CL",
      "AR"
    ],
    [
      "CLAR",
      "ENCE</w>"
    ],
    [
      "li",
      "f"
    ],
    [
      "E",
      "Y</w>"
    ],
    [
      "de",
      "li"
    ],
    [
      "S",
      "h"
    ],
    [
      "er",
      "al</w>"
    ],
    [
      "h",
      "ol"
    ],
    [
      "G",
      "ent"
    ],
    [
      "for",
      "tune</w>"
    ],
    [
      "sea",
      "</w>"
    ],
    [
      "f",
      "ear"
    ],
    [
      "i",
      "m"
    ],
    [
      "pr",
      "ou"
    ],
    [
      "ti",
      "ons</w>"
    ],
    [
      "i",
      "mp"
    ],
    [
      "n",
      "ed</w>"
    ],
    [
      "ch",
      "an"
    ],
    [
      "st",
      "ran"
    ],
    [
      "d",
      "ow</w>"
    ],
    [
      "th",
      "ree</w>"
    ],
    [
      "en",
      "g"
    ],
    [
      "er",
      "ous</w>"
    ],
    [
      "ra",
      "y</w>"
    ],
    [
      "ho",
      "ly</w>"
    ],
    [
      "vi",
      "lla"
    ],
    [
      "N",
      "OR"
    ],
    [
      "B",
      "EN"
    ],
    [
      "BEN",
      "VOL"
    ],
    [
      "BENVOL",
      "IO</w>"
    ],
    [
      "Cl",
      "own</w>"
    ],
    [
      "en",
      "ough</w>"
    ],
    [
      "v",
      "an"
    ],
    [
      "mb",
      "</w>"
    ],
    [
      "t",
      "ure</w>"
    ],
    [
      "go",
      "t</w>"
    ],
    [
      "bl",
      "oo"
    ],
    [
      "GR",
      "UM"
    ],
    [
      "GRUM",
      "IO</w>"
    ],
    [
      "P",
      "ROS"
    ],
    [
      "PROS",
      "PER"
    ],
    [
      "PROSPER",
      "O</w>"
    ],
    [
      "th",
      "ings</w>"
    ],
    [
      "s",
      "ons</w>"
    ],
    [
      "than",
      "k</w>"
    ],
    [
      "pi",
      "ty</w>"
    ],
    [
      "li",
      "ves</w>"
    ],
    [
      "la",
      "u"
    ],
    [
      "k",
      "is"
    ],
    [
      "M",
      "urderer</w>"
    ],
    [
      "MER",
      "CU"
    ],
    [
      "MERCU",
      "TIO</w>"
    ],
    [
      "K",
      "ate</w>"
    ],
    [
      "go",
      "ds</w>"
    ],
    [
      "he",
      "'s</w>"
    ],
    [
      "fi",
      "ght</w>"
    ],
    [
      "T",
      "ake</w>"
    ],
    [
      "wor",
      "n</w>"
    ],
    [
      "ma",
      "dam</w>"
    ],
    [
      "L",
      "a"
    ],
    [
      "bor",
      "n</w>"
    ],
    [
      "w",
      "elcome</w>"
    ],
    [
      "with",
      "in</w>"
    ],
    [
      "A",
      "l"
    ],
    [
      "w",
      "in"
    ],
    [
      "ow",
      "'d</w>"
    ],
    [
      "LUC",
      "ENTIO</w>"
    ],
    [
      "Be",
      "fore</w>"
    ],
    [
      "f",
      "ec"
    ],
    [
      "z",
      "e</w>"
    ],
    [
      "hor",
      "se</w>"
    ],
    [
      "bea",
      "u"
    ],
    [
      "L",
      "AND</w>"
    ],
    [
      "Serv",
      "ant</w>"
    ],
    [
      "P",
      "OM"
    ],
    [
      "POM",
      "P"
    ],
    [
      "y",
      "i"
    ],
    [
      "t",
      "es</w>"
    ],
    [
      "ju",
      "sti"
    ],
    [
      "bes",
      "eech</w>"
    ],
    [
      "me",
      "ans</w>"
    ],
    [
      "A",
      "u"
    ],
    [
      "be",
      "tween</w>"
    ],
    [
      "d",
      "ang"
    ],
    [
      "G",
      "ive</w>"
    ],
    [
      "ck",
      "'d</w>"
    ],
    [
      "fal",
      "se</w>"
    ],
    [
      "sub",
      "j"
    ],
    [
      "mi",
      "stress</w>"
    ],
    [
      "L",
      "u"
    ],
    [
      "P",
      "AU"
    ],
    [
      "PAU",
      "L"
    ],
    [
      "PAUL",
      "INA</w>"
    ],
    [
      "ga",
      "inst</w>"
    ],
    [
      "ci",
      "ty</w>"
    ],
    [
      "th",
      "ers</w>"
    ],
    [
      "m",
      "ed</w>"
    ],
    [
      "l",
      "f</w>"
    ],
    [
      "ge",
      "ther</w>"
    ],
    [
      "pres",
      "ent</w>"
    ],
    [
      "th",
      "at"
    ],
    [
      "that",
      "'s</w>"
    ],
    [
      "A",
      "t</w>"
    ],
    [
      "ar",
      "k</w>"
    ],
    [
      "M",
      "u"
    ],
    [
      "k",
      "e"
    ],
    [
      "rou",
      "nd</w>"
    ],
    [
      "is",
      "h</w>"
    ],
    [
      "g",
      "oo"
    ],
    [
      "ma",
      "id</w>"
    ],
    [
      "POMP",
      "EY</w>"
    ],
    [
      "GRE",
      "M"
    ],
    [
      "GREM",
      "IO</w>"
    ],
    [
      "nat",
      "ure</w>"
    ],
    [
      "w",
      "an"
    ],
    [
      "un",
      "der</w>"
    ],
    [
      "R",
      "e"
    ],
    [
      "sol",
      "di"
    ],
    [
      "f",
      "ire</w>"
    ],
    [
      "l",
      "in"
    ],
    [
      "es",
      "sen"
    ],
    [
      "mi",
      "s"
    ],
    [
      "rou",
      "ght</w>"
    ],
    [
      "VOL",
      "UM"
    ],
    [
      "VOLUM",
      "N"
    ],
    [
      "VOLUMN",
      "IA</w>"
    ],
    [
      "bloo",
      "dy</w>"
    ],
    [
      "di",
      "es</w>"
    ],
    [
      "sa",
      "w</w>"
    ],
    [
      "se",
      "en</w>"
    ],
    [
      "le",
      "ft</w>"
    ],
    [
      "loo",
      "ks</w>"
    ],
    [
      "ir",
      "s</w>"
    ],
    [
      "g",
      "ro"
    ],
    [
      "ll",
      "s</w>"
    ],
    [
      "Ty",
      "bal"
    ],
    [
      "P",
      "OL"
    ],
    [
      "POL",
      "I"
    ],
    [
      "POLI",
      "X"
    ],
    [
      "POLIX",
      "EN"
    ],
    [
      "POLIXEN",
      "ES</w>"
    ],
    [
      "er",
      "ing</w>"
    ],
    [
      "d",
      "le</w>"
    ],
    [
      "ce",
      "i"
    ],
    [
      "in",
      "'d</w>"
    ],
    [
      "o",
      "'s</w>"
    ],
    [
      "g",
      "es</w>"
    ],
    [
      "di",
      "sp"
    ],
    [
      "your",
      "self</w>"
    ],
    [
      "G",
      "re"
    ],
    [
      "k",
      "ed</w>"
    ],
    [
      "S",
      "ay</w>"
    ],
    [
      "si",
      "l"
    ],
    [
      "W",
      "hi"
    ],
    [
      "ma",
      "j"
    ],
    [
      "Serv",
      "ing"
    ],
    [
      "Serving",
      "man</w>"
    ],
    [
      "HA",
      "ST"
    ],
    [
      "HAST",
      "ING"
    ],
    [
      "HASTING",
      "S</w>"
    ],
    [
      "B",
      "ER"
    ],
    [
      "G",
      "ON"
    ],
    [
      "prou",
      "d</w>"
    ],
    [
      "ne",
      "ed</w>"
    ],
    [
      "D",
      "id</w>"
    ],
    [
      "f",
      "it</w>"
    ],
    [
      "s",
      "end</w>"
    ],
    [
      "t",
      "ness</w>"
    ],
    [
      "hi",
      "gh</w>"
    ],
    [
      "essen",
      "ger</w>"
    ],
    [
      "to",
      "gether</w>"
    ],
    [
      "g",
      "r"
    ],
    [
      "da",
      "ys</w>"
    ],
    [
      "doub",
      "t</w>"
    ],
    [
      "Gent",
      "le"
    ],
    [
      "thin",
      "ks</w>"
    ],
    [
      "chil",
      "dr"
    ],
    [
      "hi",
      "gh"
    ],
    [
      "pher",
      "d</w>"
    ],
    [
      "tal",
      "k</w>"
    ],
    [
      "st",
      "u"
    ],
    [
      "le",
      "t's</w>"
    ],
    [
      "P",
      "ar"
    ],
    [
      "fou",
      "l</w>"
    ],
    [
      "T",
      "</w>"
    ],
    [
      "L",
      "AU"
    ],
    [
      "LAU",
      "R"
    ],
    [
      "LAUR",
      "ENCE</w>"
    ],
    [
      "s",
      "ca"
    ],
    [
      "ti",
      "es</w>"
    ],
    [
      "d",
      "ers</w>"
    ],
    [
      "to",
      "ld</w>"
    ],
    [
      "wi",
      "sh</w>"
    ],
    [
      "pro",
      "mi"
    ],
    [
      "t",
      "ow"
    ],
    [
      "pla",
      "y</w>"
    ],
    [
      "on",
      "d</w>"
    ],
    [
      "ch",
      "es</w>"
    ],
    [
      "sp",
      "ir"
    ],
    [
      "Th",
      "erefore</w>"
    ],
    [
      "mer",
      "cy</w>"
    ],
    [
      "brea",
      "th</w>"
    ],
    [
      "a",
      "ble</w>"
    ],
    [
      "in",
      "ted</w>"
    ],
    [
      "B",
      "Y</w>"
    ],
    [
      "A",
      "h</w>"
    ],
    [
      "i",
      "us</w>"
    ],
    [
      "k",
      "ill</w>"
    ],
    [
      "sw",
      "ord</w>"
    ],
    [
      "fol",
      "low</w>"
    ],
    [
      "S",
      "u"
    ],
    [
      "p",
      "lu"
    ],
    [
      "fou",
      "nd</w>"
    ],
    [
      "f",
      "ly</w>"
    ],
    [
      "sa",
      "ve</w>"
    ],
    [
      "c",
      "tion</w>"
    ],
    [
      "L",
      "ook</w>"
    ],
    [
      "x",
      "</w>"
    ],
    [
      "ch",
      "'d</w>"
    ],
    [
      "w",
      "re"
    ],
    [
      "of",
      "ten</w>"
    ],
    [
      "t",
      "ou"
    ],
    [
      "on",
      "es</w>"
    ],
    [
      "O",
      "n</w>"
    ],
    [
      "rea",
      "d</w>"
    ],
    [
      "l",
      "ear"
    ],
    [
      "villa",
      "in</w>"
    ],
    [
      "maj",
      "esty</w>"
    ],
    [
      "C",
      "LI"
    ]
  ]
}